{
  "version": "1.0",
  "truncation": null,
  "padding": null,
  "added_tokens": [
    {
      "id": 0,
      "content": "<pad>",
      "single_word": false,
      "lstrip": false,
      "rstrip": false,
      "normalized": false,
      "special": true
    },
    {
      "id": 1,
      "content": "<unk>",
      "single_word": false,
      "lstrip": false,
      "rstrip": false,
      "normalized": false,
      "special": true
    },
    {
      "id": 2,
      "content": "<bos>",
      "single_word": false,
      "lstrip": false,
      "rstrip": false,
      "normalized": false,
      "special": true
    },
    {
      "id": 3,
      "content": "<eos>",
      "single_word": false,
      "lstrip": false,
      "rstrip": false,
      "normalized": false,
      "special": true
    },
    {
      "id": 4,
      "content": "<speaker1>",
      "single_word": false,
      "lstrip": false,
      "rstrip": false,
      "normalized": false,
      "special": true
    },
    {
      "id": 5,
      "content": "<speaker2>",
      "single_word": false,
      "lstrip": false,
      "rstrip": false,
      "normalized": false,
      "special": true
    },
    {
      "id": 6,
      "content": "<persona_sep>",
      "single_word": false,
      "lstrip": false,
      "rstrip": false,
      "normalized": false,
      "special": true
    }
  ],
  "normalizer": null,
  "pre_tokenizer": {
    "type": "Whitespace"
  },
  "post_processor": null,
  "decoder": null,
  "model": {
    "type": "BPE",
    "dropout": null,
    "unk_token": "<unk>",
    "continuing_subword_prefix": null,
    "end_of_word_suffix": null,
    "fuse_unk": false,
    "byte_fallback": false,
    "ignore_merges": false,
    "vocab": {
      "<pad>": 0,
      "<unk>": 1,
      "<bos>": 2,
      "<eos>": 3,
      "<speaker1>": 4,
      "<speaker2>": 5,
      "<persona_sep>": 6,
      "!": 7,
      "'": 8,
      ",": 9,
      ".": 10,
      "0": 11,
      "1": 12,
      "2": 13,
      "3": 14,
      "4": 15,
      "5": 16,
      "6": 17,
      "7": 18,
      "8": 19,
      "9": 20,
      ";": 21,
      "?": 22,
      "C": 23,
      "E": 24,
      "I": 25,
      "L": 26,
      "N": 27,
      "S": 28,
      "_": 29,
      "a": 30,
      "b": 31,
      "c": 32,
      "d": 33,
      "e": 34,
      "f": 35,
      "g": 36,
      "h": 37,
      "i": 38,
      "j": 39,
      "k": 40,
      "l": 41,
      "m": 42,
      "n": 43,
      "o": 44,
      "p": 45,
      "q": 46,
      "r": 47,
      "s": 48,
      "t": 49,
      "u": 50,
      "v": 51,
      "w": 52,
      "x": 53,
      "y": 54,
      "z": 55,
      "ß": 56,
      "ç": 57,
      "é": 58,
      "ñ": 59,
      "in": 60,
      "ou": 61,
      "th": 62,
      "re": 63,
      "at": 64,
      "an": 65,
      "you": 66,
      "ing": 67,
      "ve": 68,
      "to": 69,
      "do": 70,
      "or": 71,
      "the": 72,
      "is": 73,
      "ll": 74,
      "me": 75,
      "ho": 76,
      "my": 77,
      "it": 78,
      "st": 79,
      "he": 80,
      "on": 81,
      "ke": 82,
      "li": 83,
      "ar": 84,
      "are": 85,
      "oo": 86,
      "er": 87,
      "ha": 88,
      "es": 89,
      "ay": 90,
      "and": 91,
      "lo": 92,
      "en": 93,
      "no": 94,
      "am": 95,
      "be": 96,
      "how": 97,
      "that": 98,
      "wh": 99,
      "like": 100,
      "ic": 101,
      "__": 102,
      "so": 103,
      "al": 104,
      "se": 105,
      "of": 106,
      "as": 107,
      "what": 108,
      "all": 109,
      "have": 110,
      "hi": 111,
      "we": 112,
      "for": 113,
      "le": 114,
      "love": 115,
      "ood": 116,
      "ro": 117,
      "ch": 118,
      "go": 119,
      "wi": 120,
      "bu": 121,
      "ld": 122,
      "ri": 123,
      "wor": 124,
      "ad": 125,
      "gh": 126,
      "ust": 127,
      "et": 128,
      "out": 129,
      "day": 130,
      "ed": 131,
      "ry": 132,
      "not": 133,
      "co": 134,
      "good": 135,
      "ti": 136,
      "just": 137,
      "work": 138,
      "mo": 139,
      "un": 140,
      "ac": 141,
      "id": 142,
      "ly": 143,
      "ne": 144,
      "ab": 145,
      "CE": 146,
      "EN": 147,
      "IL": 148,
      "SIL": 149,
      "ENCE": 150,
      "SILENCE": 151,
      "but": 152,
      "with": 153,
      "te": 154,
      "your": 155,
      "doing": 156,
      "fa": 157,
      "ght": 158,
      "pl": 159,
      "gre": 160,
      "us": 161,
      "llo": 162,
      "ite": 163,
      "ra": 164,
      "any": 165,
      "coo": 166,
      "ally": 167,
      "oun": 168,
      "ould": 169,
      "too": 170,
      "about": 171,
      "jo": 172,
      "hello": 173,
      "ake": 174,
      "pe": 175,
      "fe": 176,
      "whe": 177,
      "today": 178,
      "ds": 179,
      "ice": 180,
      "time": 181,
      "ame": 182,
      "ter": 183,
      "can": 184,
      "some": 185,
      "king": 186,
      "fav": 187,
      "get": 188,
      "great": 189,
      "ir": 190,
      "ye": 191,
      "well": 192,
      "ts": 193,
      "eve": 194,
      "now": 195,
      "one": 196,
      "rom": 197,
      "favor": 198,
      "ther": 199,
      "favorite": 200,
      "up": 201,
      "oh": 202,
      "there": 203,
      "from": 204,
      "ur": 205,
      "ge": 206,
      "was": 207,
      "ant": 208,
      "ce": 209,
      "thing": 210,
      "play": 211,
      "sc": 212,
      "cool": 213,
      "wo": 214,
      "nice": 215,
      "yes": 216,
      "ol": 217,
      "de": 218,
      "sp": 219,
      "ver": 220,
      "ate": 221,
      "ies": 222,
      "read": 223,
      "dog": 224,
      "ine": 225,
      "ks": 226,
      "fun": 227,
      "ight": 228,
      "ind": 229,
      "live": 230,
      "art": 231,
      "really": 232,
      "ion": 233,
      "mus": 234,
      "ish": 235,
      "soun": 236,
      "music": 237,
      "au": 238,
      "aw": 239,
      "ist": 240,
      "pre": 241,
      "wat": 242,
      "they": 243,
      "lot": 244,
      "don": 245,
      "its": 246,
      "got": 247,
      "going": 248,
      "fri": 249,
      "ard": 250,
      "su": 251,
      "bo": 252,
      "ving": 253,
      "eat": 254,
      "end": 255,
      "mu": 256,
      "would": 257,
      "ty": 258,
      "scho": 259,
      "kid": 260,
      "sounds": 261,
      "very": 262,
      "where": 263,
      "joy": 264,
      "school": 265,
      "watch": 266,
      "enjoy": 267,
      "ting": 268,
      "hey": 269,
      "wn": 270,
      "ah": 271,
      "want": 272,
      "than": 273,
      "when": 274,
      "ough": 275,
      "ent": 276,
      "sh": 277,
      "them": 278,
      "pp": 279,
      "ess": 280,
      "cat": 281,
      "make": 282,
      "ning": 283,
      "gu": 284,
      "try": 285,
      "ink": 286,
      "bl": 287,
      "way": 288,
      "mp": 289,
      "job": 290,
      "much": 291,
      "kids": 292,
      "been": 293,
      "night": 294,
      "ers": 295,
      "gr": 296,
      "know": 297,
      "nt": 298,
      "lf": 299,
      "ma": 300,
      "ack": 301,
      "red": 302,
      "ex": 303,
      "ars": 304,
      "if": 305,
      "ple": 306,
      "bi": 307,
      "this": 308,
      "name": 309,
      "tra": 310,
      "food": 311,
      "ru": 312,
      "ast": 313,
      "ck": 314,
      "new": 315,
      "fu": 316,
      "ong": 317,
      "self": 318,
      "stu": 319,
      "ok": 320,
      "home": 321,
      "wow": 322,
      "el": 323,
      "ach": 324,
      "her": 325,
      "ide": 326,
      "our": 327,
      "yeah": 328,
      "bb": 329,
      "did": 330,
      "here": 331,
      "lle": 332,
      "mar": 333,
      "lol": 334,
      "kind": 335,
      "she": 336,
      "more": 337,
      "dogs": 338,
      "also": 339,
      "ass": 340,
      "ily": 341,
      "rest": 342,
      "fam": 343,
      "boo": 344,
      "ball": 345,
      "con": 346,
      "lor": 347,
      "po": 348,
      "pi": 349,
      "ani": 350,
      "old": 351,
      "pret": 352,
      "right": 353,
      "colle": 354,
      "will": 355,
      "ta": 356,
      "band": 357,
      "eso": 358,
      "though": 359,
      "hobb": 360,
      "sing": 361,
      "every": 362,
      "list": 363,
      "ci": 364,
      "si": 365,
      "esome": 366,
      "man": 367,
      "awesome": 368,
      "game": 369,
      "ep": 370,
      "che": 371,
      "pretty": 372,
      "could": 373,
      "af": 374,
      "mal": 375,
      "car": 376,
      "cl": 377,
      "see": 378,
      "bet": 379,
      "listen": 380,
      "vel": 381,
      "di": 382,
      "chi": 383,
      "pet": 384,
      "family": 385,
      "never": 386,
      "act": 387,
      "living": 388,
      "mom": 389,
      "most": 390,
      "think": 391,
      "only": 392,
      "bro": 393,
      "wee": 394,
      "had": 395,
      "sed": 396,
      "take": 397,
      "sor": 398,
      "dri": 399,
      "mov": 400,
      "sto": 401,
      "friend": 402,
      "off": 403,
      "sin": 404,
      "il": 405,
      "may": 406,
      "need": 407,
      "sho": 408,
      "lp": 409,
      "ways": 410,
      "ill": 411,
      "pro": 412,
      "ation": 413,
      "cau": 414,
      "run": 415,
      "help": 416,
      "back": 417,
      "stud": 418,
      "ie": 419,
      "ful": 420,
      "college": 421,
      "own": 422,
      "der": 423,
      "peo": 424,
      "should": 425,
      "cause": 426,
      "color": 427,
      "pa": 428,
      "coun": 429,
      "nts": 430,
      "ends": 431,
      "sorry": 432,
      "people": 433,
      "always": 434,
      "tonight": 435,
      "animal": 436,
      "times": 437,
      "ried": 438,
      "qu": 439,
      "long": 440,
      "fin": 441,
      "sure": 442,
      "two": 443,
      "res": 444,
      "ren": 445,
      "watching": 446,
      "hobbies": 447,
      "working": 448,
      "ag": 449,
      "travel": 450,
      "ree": 451,
      "does": 452,
      "zz": 453,
      "life": 454,
      "wish": 455,
      "ken": 456,
      "ity": 457,
      "why": 458,
      "ever": 459,
      "cer": 460,
      "because": 461,
      "hope": 462,
      "mor": 463,
      "loo": 464,
      "comp": 465,
      "pare": 466,
      "inte": 467,
      "friends": 468,
      "ually": 469,
      "cook": 470,
      "pr": 471,
      "wr": 472,
      "best": 473,
      "interest": 474,
      "maybe": 475,
      "com": 476,
      "ous": 477,
      "other": 478,
      "child": 479,
      "who": 480,
      "ance": 481,
      "tle": 482,
      "ak": 483,
      "pets": 484,
      "come": 485,
      "fish": 486,
      "tell": 487,
      "parents": 488,
      "wal": 489,
      "ten": 490,
      "years": 491,
      "ap": 492,
      "haha": 493,
      "fo": 494,
      "after": 495,
      "mine": 496,
      "lit": 497,
      "far": 498,
      "hair": 499,
      "reading": 500,
      "being": 501,
      "cats": 502,
      "tball": 503,
      "sy": 504,
      "into": 505,
      "by": 506,
      "tal": 507,
      "spor": 508,
      "feel": 509,
      "show": 510,
      "yourself": 511,
      "hard": 512,
      "ment": 513,
      "big": 514,
      "playing": 515,
      "drive": 516,
      "thanks": 517,
      "ace": 518,
      "married": 519,
      "hear": 520,
      "irl": 521,
      "mer": 522,
      "dr": 523,
      "things": 524,
      "fine": 525,
      "bad": 526,
      "interesting": 527,
      "ang": 528,
      "ive": 529,
      "games": 530,
      "tru": 531,
      "la": 532,
      "over": 533,
      "plan": 534,
      "many": 535,
      "girl": 536,
      "br": 537,
      "animals": 538,
      "tor": 539,
      "still": 540,
      "getting": 541,
      "um": 542,
      "ile": 543,
      "ct": 544,
      "dad": 545,
      "little": 546,
      "les": 547,
      "has": 548,
      "ble": 549,
      "then": 550,
      "pizz": 551,
      "class": 552,
      "sometimes": 553,
      "par": 554,
      "per": 555,
      "pizza": 556,
      "iting": 557,
      "teach": 558,
      "year": 559,
      "clo": 560,
      "ound": 561,
      "ian": 562,
      "ba": 563,
      "okay": 564,
      "cu": 565,
      "rent": 566,
      "late": 567,
      "books": 568,
      "pu": 569,
      "happ": 570,
      "spe": 571,
      "gl": 572,
      "movies": 573,
      "weeken": 574,
      "keep": 575,
      "ny": 576,
      "vide": 577,
      "ick": 578,
      "ali": 579,
      "tion": 580,
      "since": 581,
      "veg": 582,
      "myself": 583,
      "anything": 584,
      "hate": 585,
      "video": 586,
      "ue": 587,
      "morning": 588,
      "ner": 589,
      "country": 590,
      "whats": 591,
      "sports": 592,
      "must": 593,
      "thank": 594,
      "pers": 595,
      "cre": 596,
      "foo": 597,
      "hus": 598,
      "care": 599,
      "teac": 600,
      "won": 601,
      "sk": 602,
      "grad": 603,
      "sm": 604,
      "start": 605,
      "ary": 606,
      "dra": 607,
      "brother": 608,
      "lu": 609,
      "high": 610,
      "hed": 611,
      "children": 612,
      "part": 613,
      "book": 614,
      "pain": 615,
      "study": 616,
      "boy": 617,
      "mm": 618,
      "tho": 619,
      "used": 620,
      "oney": 621,
      "say": 622,
      "win": 623,
      "person": 624,
      "money": 625,
      "vis": 626,
      "bab": 627,
      "sup": 628,
      "fer": 629,
      "wa": 630,
      "na": 631,
      "hor": 632,
      "better": 633,
      "ouse": 634,
      "teacher": 635,
      "swi": 636,
      "husband": 637,
      "stay": 638,
      "ort": 639,
      "tu": 640,
      "fore": 641,
      "ings": 642,
      "mon": 643,
      "eating": 644,
      "ft": 645,
      "cur": 646,
      "gro": 647,
      "while": 648,
      "rap": 649,
      "cannot": 650,
      "actually": 651,
      "wife": 652,
      "bor": 653,
      "tired": 654,
      "trying": 655,
      "spend": 656,
      "house": 657,
      "tr": 658,
      "bre": 659,
      "done": 660,
      "mother": 661,
      "busy": 662,
      "blue": 663,
      "listening": 664,
      "cho": 665,
      "tv": 666,
      "sur": 667,
      "side": 668,
      "ric": 669,
      "ons": 670,
      "evening": 671,
      "ff": 672,
      "ama": 673,
      "ste": 674,
      "sa": 675,
      "pho": 676,
      "lear": 677,
      "move": 678,
      "gy": 679,
      "something": 680,
      "ished": 681,
      "able": 682,
      "ready": 683,
      "ga": 684,
      "football": 685,
      "city": 686,
      "beach": 687,
      "ber": 688,
      "stand": 689,
      "ia": 690,
      "ms": 691,
      "hu": 692,
      "fi": 693,
      "cooking": 694,
      "meat": 695,
      "around": 696,
      "guess": 697,
      "looking": 698,
      "sis": 699,
      "even": 700,
      "rock": 701,
      "mostly": 702,
      "ses": 703,
      "meet": 704,
      "ger": 705,
      "ked": 706,
      "fast": 707,
      "age": 708,
      "last": 709,
      "use": 710,
      "sit": 711,
      "ig": 712,
      "those": 713,
      "ise": 714,
      "days": 715,
      "find": 716,
      "free": 717,
      "aught": 718,
      "yo": 719,
      "anc": 720,
      "lax": 721,
      "gree": 722,
      "relax": 723,
      "fir": 724,
      "rec": 725,
      "vegan": 726,
      "before": 727,
      "weekend": 728,
      "cially": 729,
      "finished": 730,
      "youn": 731,
      "him": 732,
      "sister": 733,
      "same": 734,
      "prefer": 735,
      "his": 736,
      "swe": 737,
      "ated": 738,
      "offe": 739,
      "pping": 740,
      "grand": 741,
      "gard": 742,
      "makes": 743,
      "movie": 744,
      "coffe": 745,
      "wonder": 746,
      "ding": 747,
      "dy": 748,
      "garden": 749,
      "three": 750,
      "sle": 751,
      "coffee": 752,
      "ought": 753,
      "under": 754,
      "espe": 755,
      "cle": 756,
      "especially": 757,
      "went": 758,
      "cks": 759,
      "des": 760,
      "mmer": 761,
      "down": 762,
      "alth": 763,
      "mad": 764,
      "shop": 765,
      "world": 766,
      "pen": 767,
      "ss": 768,
      "cra": 769,
      "dance": 770,
      "sun": 771,
      "ure": 772,
      "draw": 773,
      "taking": 774,
      "drink": 775,
      "farm": 776,
      "were": 777,
      "beau": 778,
      "ich": 779,
      "week": 780,
      "ago": 781,
      "bit": 782,
      "ical": 783,
      "pur": 784,
      "inking": 785,
      "dis": 786,
      "hun": 787,
      "studying": 788,
      "write": 789,
      "health": 790,
      "current": 791,
      "line": 792,
      "sal": 793,
      "cal": 794,
      "sad": 795,
      "ride": 796,
      "place": 797,
      "cial": 798,
      "bake": 799,
      "ese": 800,
      "je": 801,
      "having": 802,
      "ange": 803,
      "happy": 804,
      "son": 805,
      "sleep": 806,
      "ps": 807,
      "tall": 808,
      "cars": 809,
      "which": 810,
      "ans": 811,
      "once": 812,
      "nur": 813,
      "bas": 814,
      "busin": 815,
      "business": 816,
      "cake": 817,
      "fishing": 818,
      "call": 819,
      "shopping": 820,
      "din": 821,
      "soon": 822,
      "erg": 823,
      "dif": 824,
      "ress": 825,
      "compu": 826,
      "store": 827,
      "both": 828,
      "computer": 829,
      "walk": 830,
      "exc": 831,
      "zing": 832,
      "da": 833,
      "ather": 834,
      "first": 835,
      "else": 836,
      "super": 837,
      "sweet": 838,
      "arian": 839,
      "full": 840,
      "making": 841,
      "yet": 842,
      "currently": 843,
      "ations": 844,
      "chic": 845,
      "hang": 846,
      "break": 847,
      "bar": 848,
      "wear": 849,
      "ear": 850,
      "stuff": 851,
      "xt": 852,
      "guit": 853,
      "visit": 854,
      "zy": 855,
      "small": 856,
      "black": 857,
      "ker": 858,
      "door": 859,
      "often": 860,
      "hour": 861,
      "ser": 862,
      "tri": 863,
      "bur": 864,
      "learn": 865,
      "app": 866,
      "fan": 867,
      "real": 868,
      "green": 869,
      "vi": 870,
      "sound": 871,
      "vol": 872,
      "probab": 873,
      "probably": 874,
      "let": 875,
      "veget": 876,
      "ics": 877,
      "pass": 878,
      "land": 879,
      "few": 880,
      "hiking": 881,
      "lots": 882,
      "usually": 883,
      "mis": 884,
      "understand": 885,
      "guitar": 886,
      "tiful": 887,
      "beautiful": 888,
      "cold": 889,
      "student": 890,
      "look": 891,
      "pt": 892,
      "ain": 893,
      "lar": 894,
      "next": 895,
      "ath": 896,
      "month": 897,
      "hobby": 898,
      "ating": 899,
      "ream": 900,
      "summer": 901,
      "prof": 902,
      "might": 903,
      "wait": 904,
      "running": 905,
      "sibl": 906,
      "hot": 907,
      "luck": 908,
      "outside": 909,
      "ctor": 910,
      "amazing": 911,
      "ster": 912,
      "started": 913,
      "true": 914,
      "away": 915,
      "law": 916,
      "everything": 917,
      "father": 918,
      "ession": 919,
      "head": 920,
      "heard": 921,
      "daught": 922,
      "mil": 923,
      "thr": 924,
      "give": 925,
      "key": 926,
      "alone": 927,
      "single": 928,
      "du": 929,
      "ins": 930,
      "hows": 931,
      "weather": 932,
      "came": 933,
      "made": 934,
      "baske": 935,
      "sell": 936,
      "ado": 937,
      "min": 938,
      "10": 939,
      "gradu": 940,
      "their": 941,
      "sn": 942,
      "siblings": 943,
      "low": 944,
      "paint": 945,
      "ones": 946,
      "tat": 947,
      "ently": 948,
      "named": 949,
      "funny": 950,
      "wonderful": 951,
      "cor": 952,
      "hike": 953,
      "guy": 954,
      "aur": 955,
      "near": 956,
      "restaur": 957,
      "buy": 958,
      "vo": 959,
      "gs": 960,
      "basketball": 961,
      "close": 962,
      "swim": 963,
      "med": 964,
      "lieve": 965,
      "yoga": 966,
      "soc": 967,
      "dream": 968,
      "online": 969,
      "asking": 970,
      "soccer": 971,
      "purple": 972,
      "erc": 973,
      "ence": 974,
      "chat": 975,
      "ater": 976,
      "grow": 977,
      "allerg": 978,
      "fre": 979,
      "talk": 980,
      "local": 981,
      "nothing": 982,
      "dinner": 983,
      "ither": 984,
      "men": 985,
      "cali": 986,
      "cy": 987,
      "ason": 988,
      "less": 989,
      "hip": 990,
      "diffe": 991,
      "base": 992,
      "type": 993,
      "grap": 994,
      "winter": 995,
      "seen": 996,
      "profession": 997,
      "fall": 998,
      "relaxing": 999,
      "bike": 1000,
      "lea": 1001,
      "company": 1002,
      "roo": 1003,
      "healthy": 1004,
      "ping": 1005,
      "nat": 1006,
      "nurse": 1007,
      "believe": 1008,
      "mag": 1009,
      "ird": 1010,
      "sci": 1011,
      "stru": 1012,
      "fr": 1013,
      "ul": 1014,
      "different": 1015,
      "yours": 1016,
      "surf": 1017,
      "enough": 1018,
      "mean": 1019,
      "rain": 1020,
      "brothers": 1021,
      "recently": 1022,
      "young": 1023,
      "clu": 1024,
      "doctor": 1025,
      "pract": 1026,
      "mind": 1027,
      "hours": 1028,
      "hy": 1029,
      "short": 1030,
      "cou": 1031,
      "happen": 1032,
      "lls": 1033,
      "crazy": 1034,
      "ton": 1035,
      "ital": 1036,
      "pic": 1037,
      "tur": 1038,
      "flor": 1039,
      "ork": 1040,
      "office": 1041,
      "alot": 1042,
      "moved": 1043,
      "thinking": 1044,
      "gen": 1045,
      "row": 1046,
      "walking": 1047,
      "exerc": 1048,
      "team": 1049,
      "ida": 1050,
      "truck": 1051,
      "engl": 1052,
      "mming": 1053,
      "outdoor": 1054,
      "choco": 1055,
      "writing": 1056,
      "ats": 1057,
      "chocolate": 1058,
      "llow": 1059,
      "mex": 1060,
      "ca": 1061,
      "cheese": 1062,
      "gym": 1063,
      "park": 1064,
      "passion": 1065,
      "florida": 1066,
      "cha": 1067,
      "gether": 1068,
      "volun": 1069,
      "yea": 1070,
      "volunte": 1071,
      "restaurant": 1072,
      "together": 1073,
      "swimming": 1074,
      "pay": 1075,
      "00": 1076,
      "dd": 1077,
      "tun": 1078,
      "fren": 1079,
      "put": 1080,
      "state": 1081,
      "nor": 1082,
      "artist": 1083,
      "baseball": 1084,
      "speak": 1085,
      "itali": 1086,
      "concer": 1087,
      "spare": 1088,
      "imp": 1089,
      "ja": 1090,
      "works": 1091,
      "mexic": 1092,
      "afterno": 1093,
      "helps": 1094,
      "ank": 1095,
      "char": 1096,
      "past": 1097,
      "wanted": 1098,
      "italian": 1099,
      "hand": 1100,
      "miss": 1101,
      "afternoon": 1102,
      "enjoying": 1103,
      "volunteer": 1104,
      "lan": 1105,
      "older": 1106,
      "either": 1107,
      "glad": 1108,
      "str": 1109,
      "train": 1110,
      "lling": 1111,
      "pian": 1112,
      "ates": 1113,
      "french": 1114,
      "bs": 1115,
      "photo": 1116,
      "brown": 1117,
      "york": 1118,
      "im": 1119,
      "ven": 1120,
      "ween": 1121,
      "exercise": 1122,
      "weekends": 1123,
      "girlfriend": 1124,
      "water": 1125,
      "cute": 1126,
      "phone": 1127,
      "almost": 1128,
      "degree": 1129,
      "desig": 1130,
      "als": 1131,
      "hur": 1132,
      "cas": 1133,
      "cour": 1134,
      "danc": 1135,
      "left": 1136,
      "four": 1137,
      "shows": 1138,
      "horses": 1139,
      "hanging": 1140,
      "ford": 1141,
      "cam": 1142,
      "ze": 1143,
      "rather": 1144,
      "ju": 1145,
      "eas": 1146,
      "clean": 1147,
      "sive": 1148,
      "ious": 1149,
      "rible": 1150,
      "marke": 1151,
      "ited": 1152,
      "song": 1153,
      "piano": 1154,
      "tory": 1155,
      "pink": 1156,
      "driving": 1157,
      "exciting": 1158,
      "lake": 1159,
      "mi": 1160,
      "tend": 1161,
      "que": 1162,
      "quite": 1163,
      "boys": 1164,
      "cream": 1165,
      "canad": 1166,
      "star": 1167,
      "tre": 1168,
      "loves": 1169,
      "cli": 1170,
      "bed": 1171,
      "boyfriend": 1172,
      "woman": 1173,
      "langu": 1174,
      "boring": 1175,
      "jap": 1176,
      "ction": 1177,
      "japan": 1178,
      "someone": 1179,
      "died": 1180,
      "inter": 1181,
      "nia": 1182,
      "tenn": 1183,
      "califor": 1184,
      "ney": 1185,
      "chicken": 1186,
      "mat": 1187,
      "diet": 1188,
      "thought": 1189,
      "outdoors": 1190,
      "sou": 1191,
      "least": 1192,
      "taco": 1193,
      "california": 1194,
      "plans": 1195,
      "libr": 1196,
      "defin": 1197,
      "aces": 1198,
      "war": 1199,
      "pres": 1200,
      "names": 1201,
      "party": 1202,
      "count": 1203,
      "fli": 1204,
      "ries": 1205,
      "novel": 1206,
      "baby": 1207,
      "gon": 1208,
      "met": 1209,
      "vers": 1210,
      "net": 1211,
      "retired": 1212,
      "english": 1213,
      "yum": 1214,
      "rican": 1215,
      "set": 1216,
      "another": 1217,
      "fic": 1218,
      "again": 1219,
      "bir": 1220,
      "sha": 1221,
      "dancing": 1222,
      "loy": 1223,
      "jor": 1224,
      "grade": 1225,
      "definite": 1226,
      "definitely": 1227,
      "thes": 1228,
      "isn": 1229,
      "ables": 1230,
      "acti": 1231,
      "daughter": 1232,
      "traveling": 1233,
      "ants": 1234,
      "ves": 1235,
      "early": 1236,
      "alright": 1237,
      "gets": 1238,
      "pick": 1239,
      "kin": 1240,
      "ww": 1241,
      "clothes": 1242,
      "vor": 1243,
      "ckey": 1244,
      "coming": 1245,
      "lost": 1246,
      "beer": 1247,
      "social": 1248,
      "major": 1249,
      "hockey": 1250,
      "chr": 1251,
      "ages": 1252,
      "jazz": 1253,
      "har": 1254,
      "five": 1255,
      "wed": 1256,
      "vegetarian": 1257,
      "rel": 1258,
      "feeling": 1259,
      "moun": 1260,
      "emp": 1261,
      "ya": 1262,
      "ring": 1263,
      "deli": 1264,
      "born": 1265,
      "ling": 1266,
      "congr": 1267,
      "riding": 1268,
      "ild": 1269,
      "fant": 1270,
      "jobs": 1271,
      "uring": 1272,
      "tennis": 1273,
      "build": 1274,
      "cid": 1275,
      "tex": 1276,
      "season": 1277,
      "mc": 1278,
      "agree": 1279,
      "through": 1280,
      "tried": 1281,
      "town": 1282,
      "worked": 1283,
      "sitting": 1284,
      "canada": 1285,
      "fl": 1286,
      "org": 1287,
      "turn": 1288,
      "weird": 1289,
      "ase": 1290,
      "painting": 1291,
      "board": 1292,
      "vy": 1293,
      "vac": 1294,
      "sus": 1295,
      "uni": 1296,
      "classes": 1297,
      "nature": 1298,
      "sisters": 1299,
      "ition": 1300,
      "baking": 1301,
      "cr": 1302,
      "become": 1303,
      "hes": 1304,
      "tain": 1305,
      "tattoo": 1306,
      "ted": 1307,
      "grocer": 1308,
      "allergic": 1309,
      "doesn": 1310,
      "eng": 1311,
      "cand": 1312,
      "chan": 1313,
      "gest": 1314,
      "instru": 1315,
      "played": 1316,
      "gram": 1317,
      "vet": 1318,
      "proble": 1319,
      "apart": 1320,
      "male": 1321,
      "io": 1322,
      "imag": 1323,
      "ents": 1324,
      "girls": 1325,
      "graduated": 1326,
      "hosp": 1327,
      "hospital": 1328,
      "ness": 1329,
      "ws": 1330,
      "flow": 1331,
      "bought": 1332,
      "tea": 1333,
      "import": 1334,
      "steak": 1335,
      "idea": 1336,
      "ask": 1337,
      "didn": 1338,
      "during": 1339,
      "huge": 1340,
      "tube": 1341,
      "exce": 1342,
      "six": 1343,
      "cus": 1344,
      "sty": 1345,
      "lives": 1346,
      "gg": 1347,
      "tech": 1348,
      "months": 1349,
      "ward": 1350,
      "ski": 1351,
      "fit": 1352,
      "muse": 1353,
      "open": 1354,
      "grew": 1355,
      "course": 1356,
      "horse": 1357,
      "lly": 1358,
      "eyes": 1359,
      "birth": 1360,
      "important": 1361,
      "teaching": 1362,
      "god": 1363,
      "mas": 1364,
      "took": 1365,
      "mid": 1366,
      "talking": 1367,
      "pes": 1368,
      "fully": 1369,
      "stead": 1370,
      "weight": 1371,
      "practice": 1372,
      "mic": 1373,
      "mber": 1374,
      "nope": 1375,
      "each": 1376,
      "fly": 1377,
      "ele": 1378,
      "main": 1379,
      "walks": 1380,
      "instead": 1381,
      "collect": 1382,
      "morrow": 1383,
      "igh": 1384,
      "lucky": 1385,
      "ced": 1386,
      "shi": 1387,
      "youtube": 1388,
      "feet": 1389,
      "photograp": 1390,
      "pictu": 1391,
      "everyday": 1392,
      "kinds": 1393,
      "trip": 1394,
      "tomorrow": 1395,
      "shoes": 1396,
      "fortun": 1397,
      "everyone": 1398,
      "along": 1399,
      "grocery": 1400,
      "bac": 1401,
      "shel": 1402,
      "museum": 1403,
      "sub": 1404,
      "ston": 1405,
      "twin": 1406,
      "deal": 1407,
      "led": 1408,
      "singing": 1409,
      "anyone": 1410,
      "player": 1411,
      "such": 1412,
      "poo": 1413,
      "lic": 1414,
      "apartment": 1415,
      "log": 1416,
      "donal": 1417,
      "sick": 1418,
      "reti": 1419,
      "ming": 1420,
      "vacation": 1421,
      "chur": 1422,
      "scare": 1423,
      "int": 1424,
      "pped": 1425,
      "dro": 1426,
      "vegg": 1427,
      "unch": 1428,
      "keeps": 1429,
      "hunting": 1430,
      "texas": 1431,
      "logy": 1432,
      "fight": 1433,
      "olin": 1434,
      "metal": 1435,
      "iet": 1436,
      "fortunate": 1437,
      "stress": 1438,
      "army": 1439,
      "sen": 1440,
      "dan": 1441,
      "tast": 1442,
      "mcdonal": 1443,
      "pri": 1444,
      "please": 1445,
      "lad": 1446,
      "fect": 1447,
      "mb": 1448,
      "imagine": 1449,
      "kit": 1450,
      "20": 1451,
      "ils": 1452,
      "fas": 1453,
      "unk": 1454,
      "lovely": 1455,
      "blon": 1456,
      "pop": 1457,
      "fil": 1458,
      "church": 1459,
      "kes": 1460,
      "tely": 1461,
      "dead": 1462,
      "learning": 1463,
      "writ": 1464,
      "scary": 1465,
      "finish": 1466,
      "beat": 1467,
      "terrible": 1468,
      "foods": 1469,
      "sport": 1470,
      "rais": 1471,
      "science": 1472,
      "fresh": 1473,
      "sushi": 1474,
      "professional": 1475,
      "career": 1476,
      "wer": 1477,
      "leave": 1478,
      "lately": 1479,
      "fru": 1480,
      "oce": 1481,
      "waiting": 1482,
      "relations": 1483,
      "bring": 1484,
      "smart": 1485,
      "cond": 1486,
      "chicago": 1487,
      "these": 1488,
      "program": 1489,
      "pot": 1490,
      "later": 1491,
      "ni": 1492,
      "club": 1493,
      "ot": 1494,
      "languages": 1495,
      "hit": 1496,
      "add": 1497,
      "drinking": 1498,
      "tough": 1499,
      "pas": 1500,
      "pool": 1501,
      "neat": 1502,
      "ped": 1503,
      "port": 1504,
      "bal": 1505,
      "face": 1506,
      "taught": 1507,
      "del": 1508,
      "body": 1509,
      "sucks": 1510,
      "anime": 1511,
      "sales": 1512,
      "top": 1513,
      "excited": 1514,
      "cant": 1515,
      "lunch": 1516,
      "candy": 1517,
      "air": 1518,
      "learned": 1519,
      "room": 1520,
      "employ": 1521,
      "ocean": 1522,
      "account": 1523,
      "divor": 1524,
      "drawing": 1525,
      "mexican": 1526,
      "famous": 1527,
      "tacos": 1528,
      "easy": 1529,
      "pper": 1530,
      "light": 1531,
      "wood": 1532,
      "fac": 1533,
      "cont": 1534,
      "ran": 1535,
      "snow": 1536,
      "novels": 1537,
      "cious": 1538,
      "ino": 1539,
      "someday": 1540,
      "problem": 1541,
      "videos": 1542,
      "fie": 1543,
      "pol": 1544,
      "haven": 1545,
      "trave": 1546,
      "secre": 1547,
      "anymore": 1548,
      "unfortunate": 1549,
      "likes": 1550,
      "pictures": 1551,
      "est": 1552,
      "oc": 1553,
      "ions": 1554,
      "compet": 1555,
      "field": 1556,
      "sea": 1557,
      "cro": 1558,
      "lawy": 1559,
      "boat": 1560,
      "chef": 1561,
      "vegetables": 1562,
      "til": 1563,
      "huh": 1564,
      "arch": 1565,
      "wrong": 1566,
      "special": 1567,
      "change": 1568,
      "takes": 1569,
      "anna": 1570,
      "ob": 1571,
      "surfing": 1572,
      "eg": 1573,
      "dru": 1574,
      "bob": 1575,
      "hoo": 1576,
      "aking": 1577,
      "shelter": 1578,
      "broke": 1579,
      "gone": 1580,
      "inks": 1581,
      "iron": 1582,
      "catch": 1583,
      "cup": 1584,
      "sew": 1585,
      "places": 1586,
      "dar": 1587,
      "ire": 1588,
      "solu": 1589,
      "said": 1590,
      "accountant": 1591,
      "spending": 1592,
      "comm": 1593,
      "veggies": 1594,
      "perfect": 1595,
      "seems": 1596,
      "smo": 1597,
      "member": 1598,
      "classical": 1599,
      "saw": 1600,
      "math": 1601,
      "ut": 1602,
      "daughters": 1603,
      "fix": 1604,
      "ult": 1605,
      "design": 1606,
      "ically": 1607,
      "eggs": 1608,
      "lets": 1609,
      "cakes": 1610,
      "news": 1611,
      "ier": 1612,
      "second": 1613,
      "workout": 1614,
      "breakfast": 1615,
      "ments": 1616,
      "yellow": 1617,
      "gan": 1618,
      "comic": 1619,
      "delicious": 1620,
      "neigh": 1621,
      "nit": 1622,
      "snake": 1623,
      "secret": 1624,
      "stre": 1625,
      "stra": 1626,
      "blonde": 1627,
      "glass": 1628,
      "ror": 1629,
      "cookies": 1630,
      "apple": 1631,
      "concerts": 1632,
      "anger": 1633,
      "hoping": 1634,
      "camping": 1635,
      "road": 1636,
      "lived": 1637,
      "lie": 1638,
      "rad": 1639,
      "thrones": 1640,
      "planning": 1641,
      "birthday": 1642,
      "vice": 1643,
      "bank": 1644,
      "worker": 1645,
      "raid": 1646,
      "rus": 1647,
      "passed": 1648,
      "hone": 1649,
      "absolu": 1650,
      "loved": 1651,
      "pasta": 1652,
      "nation": 1653,
      "concert": 1654,
      "fair": 1655,
      "sme": 1656,
      "style": 1657,
      "neighbor": 1658,
      "van": 1659,
      "cut": 1660,
      "daily": 1661,
      "violin": 1662,
      "lon": 1663,
      "pted": 1664,
      "py": 1665,
      "nails": 1666,
      "pit": 1667,
      "stop": 1668,
      "between": 1669,
      "thor": 1670,
      "singer": 1671,
      "area": 1672,
      "ow": 1673,
      "drag": 1674,
      "oud": 1675,
      "moment": 1676,
      "gonna": 1677,
      "christ": 1678,
      "employed": 1679,
      "engine": 1680,
      "pac": 1681,
      "already": 1682,
      "whole": 1683,
      "ples": 1684,
      "seem": 1685,
      "aren": 1686,
      "fries": 1687,
      "wanna": 1688,
      "foot": 1689,
      "ject": 1690,
      "ballet": 1691,
      "die": 1692,
      "30": 1693,
      "except": 1694,
      "wedding": 1695,
      "kill": 1696,
      "writer": 1697,
      "honest": 1698,
      "gotta": 1699,
      "retire": 1700,
      "dragons": 1701,
      "itary": 1702,
      "share": 1703,
      "lt": 1704,
      "gn": 1705,
      "oes": 1706,
      "vin": 1707,
      "orange": 1708,
      "edu": 1709,
      "allergies": 1710,
      "bow": 1711,
      "called": 1712,
      "military": 1713,
      "mexico": 1714,
      "mainly": 1715,
      "gri": 1716,
      "ane": 1717,
      "found": 1718,
      "step": 1719,
      "ari": 1720,
      "marketing": 1721,
      "tattoos": 1722,
      "hmm": 1723,
      "salad": 1724,
      "wel": 1725,
      "pair": 1726,
      "gers": 1727,
      "date": 1728,
      "tot": 1729,
      "hero": 1730,
      "hallo": 1731,
      "dle": 1732,
      "classic": 1733,
      "gam": 1734,
      "ash": 1735,
      "afraid": 1736,
      "wine": 1737,
      "although": 1738,
      "astic": 1739,
      "hopefully": 1740,
      "history": 1741,
      "american": 1742,
      "hung": 1743,
      "couple": 1744,
      "raised": 1745,
      "fave": 1746,
      "extra": 1747,
      "halloween": 1748,
      "pup": 1749,
      "ches": 1750,
      "aust": 1751,
      "tw": 1752,
      "fruit": 1753,
      "ative": 1754,
      "acter": 1755,
      "younger": 1756,
      "box": 1757,
      "por": 1758,
      "kinda": 1759,
      "bacon": 1760,
      "educat": 1761,
      "guys": 1762,
      "character": 1763,
      "street": 1764,
      "christmas": 1765,
      "lawyer": 1766,
      "cess": 1767,
      "factory": 1768,
      "radio": 1769,
      "totally": 1770,
      "ities": 1771,
      "actor": 1772,
      "pat": 1773,
      "until": 1774,
      "dist": 1775,
      "library": 1776,
      "kar": 1777,
      "sat": 1778,
      "spir": 1779,
      "lab": 1780,
      "test": 1781,
      "ham": 1782,
      "save": 1783,
      "large": 1784,
      "south": 1785,
      "check": 1786,
      "absolutely": 1787,
      "sons": 1788,
      "polit": 1789,
      "acting": 1790,
      "relationship": 1791,
      "fol": 1792,
      "gar": 1793,
      "author": 1794,
      "ched": 1795,
      "pie": 1796,
      "trucks": 1797,
      "attend": 1798,
      "heart": 1799,
      "veter": 1800,
      "vent": 1801,
      "carto": 1802,
      "stories": 1803,
      "cts": 1804,
      "librarian": 1805,
      "goes": 1806,
      "flix": 1807,
      "netflix": 1808,
      "ade": 1809,
      "computers": 1810,
      "bes": 1811,
      "publ": 1812,
      "engineer": 1813,
      "says": 1814,
      "lady": 1815,
      "ky": 1816,
      "roll": 1817,
      "mary": 1818,
      "impres": 1819,
      "middle": 1820,
      "attle": 1821,
      "ergy": 1822,
      "zoo": 1823,
      "nah": 1824,
      "ties": 1825,
      "lau": 1826,
      "join": 1827,
      "makeup": 1828,
      "model": 1829,
      "tains": 1830,
      "ual": 1831,
      "tele": 1832,
      "sever": 1833,
      "women": 1834,
      "rough": 1835,
      "skin": 1836,
      "fashi": 1837,
      "west": 1838,
      "form": 1839,
      "iphone": 1840,
      "chin": 1841,
      "tour": 1842,
      "hunt": 1843,
      "wild": 1844,
      "lead": 1845,
      "plays": 1846,
      "hen": 1847,
      "mountains": 1848,
      "san": 1849,
      "medi": 1850,
      "sky": 1851,
      "unfortunately": 1852,
      "flowers": 1853,
      "mac": 1854,
      "expen": 1855,
      "graduate": 1856,
      "several": 1857,
      "glasses": 1858,
      "fashion": 1859,
      "prin": 1860,
      "scared": 1861,
      "pon": 1862,
      "seven": 1863,
      "higan": 1864,
      "coast": 1865,
      "versity": 1866,
      "michigan": 1867,
      "nic": 1868,
      "quit": 1869,
      "without": 1870,
      "reli": 1871,
      "cleaning": 1872,
      "climb": 1873,
      "alab": 1874,
      "cop": 1875,
      "university": 1876,
      "fat": 1877,
      "icy": 1878,
      "photography": 1879,
      "alabama": 1880,
      "rimp": 1881,
      "shrimp": 1882,
      "hungry": 1883,
      "accid": 1884,
      "horror": 1885,
      "sunday": 1886,
      "cent": 1887,
      "bie": 1888,
      "grou": 1889,
      "rich": 1890,
      "reci": 1891,
      "congrats": 1892,
      "50": 1893,
      "potat": 1894,
      "mcdonalds": 1895,
      "ture": 1896,
      "tom": 1897,
      "active": 1898,
      "bills": 1899,
      "rac": 1900,
      "ouble": 1901,
      "comics": 1902,
      "den": 1903,
      "produ": 1904,
      "female": 1905,
      "happened": 1906,
      "commun": 1907,
      "search": 1908,
      "skate": 1909,
      "ica": 1910,
      "lice": 1911,
      "expensive": 1912,
      "poor": 1913,
      "exper": 1914,
      "gi": 1915,
      "laugh": 1916,
      "joh": 1917,
      "atul": 1918,
      "miles": 1919,
      "john": 1920,
      "told": 1921,
      "chance": 1922,
      "race": 1923,
      "story": 1924,
      "fantastic": 1925,
      "orge": 1926,
      "ption": 1927,
      "usa": 1928,
      "nursing": 1929,
      "north": 1930,
      "12": 1931,
      "remember": 1932,
      "jack": 1933,
      "theater": 1934,
      "interested": 1935,
      "spent": 1936,
      "holi": 1937,
      "congratul": 1938,
      "dancer": 1939,
      "phy": 1940,
      "casino": 1941,
      "ides": 1942,
      "lete": 1943,
      "bio": 1944,
      "market": 1945,
      "turned": 1946,
      "18": 1947,
      "worth": 1948,
      "yep": 1949,
      "ban": 1950,
      "bun": 1951,
      "gardening": 1952,
      "helping": 1953,
      "liter": 1954,
      "white": 1955,
      "accident": 1956,
      "ore": 1957,
      "uro": 1958,
      "fantas": 1959,
      "fiction": 1960,
      "sometime": 1961,
      "tic": 1962,
      "rica": 1963,
      "order": 1964,
      "gue": 1965,
      "eye": 1966,
      "phi": 1967,
      "ancy": 1968,
      "span": 1969,
      "congratulations": 1970,
      "het": 1971,
      "activ": 1972,
      "tery": 1973,
      "divorced": 1974,
      "impressive": 1975,
      "moving": 1976,
      "nel": 1977,
      "ces": 1978,
      "ider": 1979,
      "icing": 1980,
      "motor": 1981,
      "dress": 1982,
      "gener": 1983,
      "ator": 1984,
      "bull": 1985,
      "dep": 1986,
      "ural": 1987,
      "education": 1988,
      "exact": 1989,
      "afford": 1990,
      "ines": 1991,
      "hurrican": 1992,
      "medical": 1993,
      "nu": 1994,
      "gum": 1995,
      "firm": 1996,
      "goo": 1997,
      "umber": 1998,
      "cons": 1999,
      "worry": 2000,
      "spag": 2001,
      "songs": 2002,
      "hetti": 2003,
      "spaghetti": 2004,
      "adopted": 2005,
      "advent": 2006,
      "youngest": 2007,
      "ns": 2008,
      "poet": 2009,
      "wind": 2010,
      "relig": 2011,
      "spanish": 2012,
      "enty": 2013,
      "states": 2014,
      "marath": 2015,
      "ards": 2016,
      "cri": 2017,
      "ler": 2018,
      "channel": 2019,
      "station": 2020,
      "liz": 2021,
      "ices": 2022,
      "collection": 2023,
      "human": 2024,
      "awful": 2025,
      "paris": 2026,
      "entist": 2027,
      "quiet": 2028,
      "fire": 2029,
      "burgers": 2030,
      "wearing": 2031,
      "euro": 2032,
      "voice": 2033,
      "europe": 2034,
      "lone": 2035,
      "homework": 2036,
      "ef": 2037,
      "rage": 2038,
      "em": 2039,
      "diffic": 2040,
      "magic": 2041,
      "table": 2042,
      "talent": 2043,
      "clown": 2044,
      "museums": 2045,
      "difficult": 2046,
      "cele": 2047,
      "saving": 2048,
      "jam": 2049,
      "anywhere": 2050,
      "colors": 2051,
      "national": 2052,
      "police": 2053,
      "follow": 2054,
      "yummy": 2055,
      "couch": 2056,
      "ior": 2057,
      "quick": 2058,
      "flo": 2059,
      "ls": 2060,
      "shift": 2061,
      "knit": 2062,
      "meal": 2063,
      "plant": 2064,
      "enter": 2065,
      "disney": 2066,
      "sense": 2067,
      "practicing": 2068,
      "smell": 2069,
      "london": 2070,
      "tive": 2071,
      "trust": 2072,
      "bored": 2073,
      "psy": 2074,
      "students": 2075,
      "stick": 2076,
      "ency": 2077,
      "rot": 2078,
      "leg": 2079,
      "mes": 2080,
      "hio": 2081,
      "feed": 2082,
      "horrible": 2083,
      "growing": 2084,
      "cru": 2085,
      "wants": 2086,
      "tail": 2087,
      "dark": 2088,
      "experi": 2089,
      "thri": 2090,
      "shy": 2091,
      "warm": 2092,
      "besides": 2093,
      "celebr": 2094,
      "shower": 2095,
      "german": 2096,
      "elect": 2097,
      "types": 2098,
      "apples": 2099,
      "motorcy": 2100,
      "corn": 2101,
      "sar": 2102,
      "www": 2103,
      "pose": 2104,
      "wouldn": 2105,
      "19": 2106,
      "myster": 2107,
      "jokes": 2108,
      "trouble": 2109,
      "sam": 2110,
      "waitress": 2111,
      "seattle": 2112,
      "lover": 2113,
      "visiting": 2114,
      "om": 2115,
      "gun": 2116,
      "arm": 2117,
      "farmer": 2118,
      "sand": 2119,
      "uck": 2120,
      "whatever": 2121,
      "personal": 2122,
      "comes": 2123,
      "group": 2124,
      "jour": 2125,
      "forward": 2126,
      "ager": 2127,
      "death": 2128,
      "mechan": 2129,
      "watched": 2130,
      "post": 2131,
      "power": 2132,
      "moms": 2133,
      "ssi": 2134,
      "diving": 2135,
      "russi": 2136,
      "antic": 2137,
      "twins": 2138,
      "musician": 2139,
      "cheer": 2140,
      "driver": 2141,
      "france": 2142,
      "common": 2143,
      "mill": 2144,
      "internet": 2145,
      "others": 2146,
      "mentary": 2147,
      "safe": 2148,
      "figu": 2149,
      "training": 2150,
      "quest": 2151,
      "simp": 2152,
      "burger": 2153,
      "language": 2154,
      "choice": 2155,
      "jer": 2156,
      "tit": 2157,
      "chatting": 2158,
      "designer": 2159,
      "veterin": 2160,
      "phe": 2161,
      "vision": 2162,
      "doctors": 2163,
      "las": 2164,
      "ids": 2165,
      "strange": 2166,
      "genre": 2167,
      "cartoons": 2168,
      "host": 2169,
      "grandchildren": 2170,
      "fantasy": 2171,
      "flu": 2172,
      "mountain": 2173,
      "fur": 2174,
      "bat": 2175,
      "ware": 2176,
      "auto": 2177,
      "kat": 2178,
      "grill": 2179,
      "lonely": 2180,
      "sunny": 2181,
      "teen": 2182,
      "cancer": 2183,
      "bible": 2184,
      "guard": 2185,
      "offic": 2186,
      "hurt": 2187,
      "beard": 2188,
      "taste": 2189,
      "hood": 2190,
      "wheel": 2191,
      "tles": 2192,
      "roomm": 2193,
      "reason": 2194,
      "lies": 2195,
      "seas": 2196,
      "vie": 2197,
      "boots": 2198,
      "gold": 2199,
      "dude": 2200,
      "golf": 2201,
      "selling": 2202,
      "shape": 2203,
      "alco": 2204,
      "boss": 2205,
      "plants": 2206,
      "alcoho": 2207,
      "anyway": 2208,
      "stuck": 2209,
      "everywhere": 2210,
      "counting": 2211,
      "lose": 2212,
      "noy": 2213,
      "soci": 2214,
      "navy": 2215,
      "hic": 2216,
      "harry": 2217,
      "bra": 2218,
      "cting": 2219,
      "annoy": 2220,
      "plain": 2221,
      "poetry": 2222,
      "future": 2223,
      "ned": 2224,
      "zed": 2225,
      "building": 2226,
      "techno": 2227,
      "satur": 2228,
      "vid": 2229,
      "ert": 2230,
      "italy": 2231,
      "kans": 2232,
      "ures": 2233,
      "insur": 2234,
      "consider": 2235,
      "insurance": 2236,
      "became": 2237,
      "beauty": 2238,
      "dge": 2239,
      "wall": 2240,
      "spring": 2241,
      "planes": 2242,
      "height": 2243,
      "grandmother": 2244,
      "mart": 2245,
      "chair": 2246,
      "hop": 2247,
      "seeing": 2248,
      "croche": 2249,
      "baker": 2250,
      "os": 2251,
      "hon": 2252,
      "romantic": 2253,
      "ugh": 2254,
      "tori": 2255,
      "lazy": 2256,
      "mustang": 2257,
      "kansas": 2258,
      "camp": 2259,
      "parrot": 2260,
      "press": 2261,
      "gas": 2262,
      "liked": 2263,
      "starting": 2264,
      "using": 2265,
      "jim": 2266,
      "trees": 2267,
      "bill": 2268,
      "officer": 2269,
      "traveled": 2270,
      "kinderg": 2271,
      "kindergart": 2272,
      "facebook": 2273,
      "cab": 2274,
      "wash": 2275,
      "ender": 2276,
      "blood": 2277,
      "instrument": 2278,
      "mall": 2279,
      "ising": 2280,
      "partic": 2281,
      "stressful": 2282,
      "ved": 2283,
      "ross": 2284,
      "sleeping": 2285,
      "blog": 2286,
      "favorit": 2287,
      "comedy": 2288,
      "meals": 2289,
      "sters": 2290,
      "colorado": 2291,
      "terri": 2292,
      "politics": 2293,
      "invol": 2294,
      "creative": 2295,
      "surger": 2296,
      "elementary": 2297,
      "junk": 2298,
      "haust": 2299,
      "exhaust": 2300,
      "lessons": 2301,
      "bucks": 2302,
      "blind": 2303,
      "pect": 2304,
      "drums": 2305,
      "odd": 2306,
      "series": 2307,
      "mars": 2308,
      "goog": 2309,
      "tar": 2310,
      "ina": 2311,
      "soda": 2312,
      "america": 2313,
      "nie": 2314,
      "lif": 2315,
      "vegas": 2316,
      "skiing": 2317,
      "roses": 2318,
      "bread": 2319,
      "pies": 2320,
      "ffic": 2321,
      "issu": 2322,
      "bud": 2323,
      "adore": 2324,
      "paper": 2325,
      "pub": 2326,
      "viking": 2327,
      "hurricane": 2328,
      "veterinarian": 2329,
      "serious": 2330,
      "strong": 2331,
      "16": 2332,
      "fing": 2333,
      "ressed": 2334,
      "plane": 2335,
      "umb": 2336,
      "kindergarten": 2337,
      "knew": 2338,
      "arely": 2339,
      "puppy": 2340,
      "ature": 2341,
      "sort": 2342,
      "bon": 2343,
      "energy": 2344,
      "reader": 2345,
      "oper": 2346,
      "organi": 2347,
      "instruments": 2348,
      "vous": 2349,
      "somewhere": 2350,
      "service": 2351,
      "create": 2352,
      "beet": 2353,
      "favour": 2354,
      "aged": 2355,
      "chris": 2356,
      "recipes": 2357,
      "ray": 2358,
      "soft": 2359,
      "nephe": 2360,
      "sw": 2361,
      "flower": 2362,
      "seafood": 2363,
      "spon": 2364,
      "east": 2365,
      "kne": 2366,
      "ys": 2367,
      "personally": 2368,
      "kay": 2369,
      "jane": 2370,
      "moon": 2371,
      "skateboard": 2372,
      "japanese": 2373,
      "stones": 2374,
      "vic": 2375,
      "bell": 2376,
      "reward": 2377,
      "retail": 2378,
      "nast": 2379,
      "pepper": 2380,
      "mechanic": 2381,
      "yester": 2382,
      "yesterday": 2383,
      "toes": 2384,
      "unless": 2385,
      "looks": 2386,
      "nervous": 2387,
      "bru": 2388,
      "cred": 2389,
      "tel": 2390,
      "favourite": 2391,
      "bt": 2392,
      "action": 2393,
      "beatles": 2394,
      "0s": 2395,
      "dor": 2396,
      "ket": 2397,
      "justin": 2398,
      "bby": 2399,
      "finally": 2400,
      "dropped": 2401,
      "sewing": 2402,
      "15": 2403,
      "superhero": 2404,
      "bus": 2405,
      "finishing": 2406,
      "ush": 2407,
      "todd": 2408,
      "staying": 2409,
      "track": 2410,
      "anx": 2411,
      "val": 2412,
      "rose": 2413,
      "aww": 2414,
      "chill": 2415,
      "stock": 2416,
      "superman": 2417,
      "saturday": 2418,
      "anic": 2419,
      "indust": 2420,
      "space": 2421,
      "nights": 2422,
      "golden": 2423,
      "google": 2424,
      "due": 2425,
      "yard": 2426,
      "pleas": 2427,
      "iety": 2428,
      "speaking": 2429,
      "cir": 2430,
      "skill": 2431,
      "medic": 2432,
      "ohio": 2433,
      "peace": 2434,
      "manager": 2435,
      "sadly": 2436,
      "loving": 2437,
      "rewarding": 2438,
      "mile": 2439,
      "favorites": 2440,
      "ident": 2441,
      "clothing": 2442,
      "welcome": 2443,
      "sessed": 2444,
      "media": 2445,
      "honda": 2446,
      "hold": 2447,
      "straight": 2448,
      "nal": 2449,
      "vert": 2450,
      "television": 2451,
      "det": 2452,
      "bul": 2453,
      "nes": 2454,
      "pray": 2455,
      "climbing": 2456,
      "surgery": 2457,
      "coach": 2458,
      "grown": 2459,
      "ache": 2460,
      "george": 2461,
      "boston": 2462,
      "bakery": 2463,
      "exactly": 2464,
      "op": 2465,
      "folk": 2466,
      "keeping": 2467,
      "fact": 2468,
      "research": 2469,
      "chinese": 2470,
      "fla": 2471,
      "plus": 2472,
      "aut": 2473,
      "needs": 2474,
      "corvet": 2475,
      "parks": 2476,
      "dreams": 2477,
      "obsessed": 2478,
      "honestly": 2479,
      "tro": 2480,
      "regu": 2481,
      "accounting": 2482,
      "traffic": 2483,
      "curly": 2484,
      "eh": 2485,
      "lia": 2486,
      "minds": 2487,
      "salesman": 2488,
      "inde": 2489,
      "suppose": 2490,
      "fancy": 2491,
      "ko": 2492,
      "robo": 2493,
      "coll": 2494,
      "athlet": 2495,
      "pays": 2496,
      "ism": 2497,
      "helped": 2498,
      "fy": 2499,
      "gin": 2500,
      "meant": 2501,
      "plenty": 2502,
      "arts": 2503,
      "decor": 2504,
      "christi": 2505,
      "tos": 2506,
      "manage": 2507,
      "oldest": 2508,
      "cul": 2509,
      "wasn": 2510,
      "athlete": 2511,
      "howdy": 2512,
      "comfor": 2513,
      "starbucks": 2514,
      "portland": 2515,
      "simple": 2516,
      "fried": 2517,
      "photos": 2518,
      "regular": 2519,
      "ron": 2520,
      "ale": 2521,
      "prius": 2522,
      "dies": 2523,
      "dish": 2524,
      "actress": 2525,
      "bass": 2526,
      "shar": 2527,
      "cards": 2528,
      "gives": 2529,
      "industry": 2530,
      "card": 2531,
      "locat": 2532,
      "iced": 2533,
      "motorcycle": 2534,
      "brit": 2535,
      "nyc": 2536,
      "addic": 2537,
      "ouch": 2538,
      "frank": 2539,
      "potatoes": 2540,
      "25": 2541,
      "meeting": 2542,
      "appo": 2543,
      "14": 2544,
      "punk": 2545,
      "means": 2546,
      "timore": 2547,
      "chevy": 2548,
      "partner": 2549,
      "baltimore": 2550,
      "therap": 2551,
      "exp": 2552,
      "aks": 2553,
      "cker": 2554,
      "gig": 2555,
      "decid": 2556,
      "popu": 2557,
      "runs": 2558,
      "proud": 2559,
      "craf": 2560,
      "literature": 2561,
      "couldn": 2562,
      "words": 2563,
      "grandma": 2564,
      "mystery": 2565,
      "bing": 2566,
      "achi": 2567,
      "masters": 2568,
      "prote": 2569,
      "chickens": 2570,
      "ben": 2571,
      "lift": 2572,
      "hipp": 2573,
      "word": 2574,
      "assist": 2575,
      "ghost": 2576,
      "ppers": 2577,
      "mans": 2578,
      "llent": 2579,
      "excellent": 2580,
      "sweets": 2581,
      "role": 2582,
      "romance": 2583,
      "anta": 2584,
      "dating": 2585,
      "direc": 2586,
      "horseback": 2587,
      "smoke": 2588,
      "200": 2589,
      "alive": 2590,
      "nfl": 2591,
      "slow": 2592,
      "vani": 2593,
      "tomat": 2594,
      "sarah": 2595,
      "sau": 2596,
      "senior": 2597,
      "isher": 2598,
      "decided": 2599,
      "ters": 2600,
      "dec": 2601,
      "experience": 2602,
      "greet": 2603,
      "subject": 2604,
      "vate": 2605,
      "friday": 2606,
      "milk": 2607,
      "hmmm": 2608,
      "blo": 2609,
      "fami": 2610,
      "posit": 2611,
      "public": 2612,
      "ison": 2613,
      "butter": 2614,
      "owl": 2615,
      "psycho": 2616,
      "ii": 2617,
      "georg": 2618,
      "georgia": 2619,
      "bart": 2620,
      "aches": 2621,
      "pregn": 2622,
      "charlie": 2623,
      "religious": 2624,
      "bout": 2625,
      "kets": 2626,
      "event": 2627,
      "ireland": 2628,
      "lier": 2629,
      "maga": 2630,
      "earlier": 2631,
      "lizard": 2632,
      "sco": 2633,
      "journal": 2634,
      "bars": 2635,
      "potter": 2636,
      "hous": 2637,
      "unemployed": 2638,
      "england": 2639,
      "queen": 2640,
      "houses": 2641,
      "tables": 2642,
      "easier": 2643,
      "va": 2644,
      "oooo": 2645,
      "donate": 2646,
      "chilling": 2647,
      "restaurants": 2648,
      "woods": 2649,
      "corvette": 2650,
      "ctive": 2651,
      "stam": 2652,
      "indeed": 2653,
      "aa": 2654,
      "guan": 2655,
      "cin": 2656,
      "goal": 2657,
      "deep": 2658,
      "mcdonald": 2659,
      "ferr": 2660,
      "stressed": 2661,
      "support": 2662,
      "hands": 2663,
      "rolling": 2664,
      "subur": 2665,
      "mike": 2666,
      "popular": 2667,
      "mix": 2668,
      "community": 2669,
      "zon": 2670,
      "liar": 2671,
      "crime": 2672,
      "iguan": 2673,
      "ley": 2674,
      "consu": 2675,
      "competition": 2676,
      "washing": 2677,
      "gave": 2678,
      "burri": 2679,
      "none": 2680,
      "austra": 2681,
      "cher": 2682,
      "dye": 2683,
      "orig": 2684,
      "lley": 2685,
      "professionally": 2686,
      "cape": 2687,
      "17": 2688,
      "forget": 2689,
      "spo": 2690,
      "neighbors": 2691,
      "iry": 2692,
      "issues": 2693,
      "opera": 2694,
      "akes": 2695,
      "focus": 2696,
      "guns": 2697,
      "deve": 2698,
      "reminds": 2699,
      "bage": 2700,
      "develo": 2701,
      "iny": 2702,
      "omg": 2703,
      "danger": 2704,
      "pilot": 2705,
      "hates": 2706,
      "however": 2707,
      "forest": 2708,
      "round": 2709,
      "collecting": 2710,
      "happens": 2711,
      "origin": 2712,
      "alous": 2713,
      "spec": 2714,
      "lottery": 2715,
      "constru": 2716,
      "craft": 2717,
      "fell": 2718,
      "hea": 2719,
      "ont": 2720,
      "trans": 2721,
      "jealous": 2722,
      "bunch": 2723,
      "mit": 2724,
      "non": 2725,
      "walmart": 2726,
      "cry": 2727,
      "pigs": 2728,
      "forever": 2729,
      "league": 2730,
      "private": 2731,
      "bm": 2732,
      "mate": 2733,
      "leather": 2734,
      "hind": 2735,
      "stores": 2736,
      "aper": 2737,
      "advice": 2738,
      "scen": 2739,
      "karate": 2740,
      "phys": 2741,
      "assistant": 2742,
      "sugar": 2743,
      "pump": 2744,
      "marathons": 2745,
      "secur": 2746,
      "balls": 2747,
      "syste": 2748,
      "ues": 2749,
      "hell": 2750,
      "aud": 2751,
      "dragon": 2752,
      "bieber": 2753,
      "australia": 2754,
      "lap": 2755,
      "inten": 2756,
      "anti": 2757,
      "neither": 2758,
      "certain": 2759,
      "ged": 2760,
      "ounds": 2761,
      "spicy": 2762,
      "bbq": 2763,
      "passionate": 2764,
      "publish": 2765,
      "hs": 2766,
      "stars": 2767,
      "biking": 2768,
      "possi": 2769,
      "goodness": 2770,
      "breed": 2771,
      "explo": 2772,
      "pregnant": 2773,
      "gif": 2774,
      "dom": 2775,
      "disappo": 2776,
      "tuna": 2777,
      "cap": 2778,
      "wrest": 2779,
      "film": 2780,
      "christian": 2781,
      "dangerous": 2782,
      "kidding": 2783,
      "located": 2784,
      "number": 2785,
      "viron": 2786,
      "doll": 2787,
      "environ": 2788,
      "worried": 2789,
      "smoo": 2790,
      "subway": 2791,
      "crochet": 2792,
      "ign": 2793,
      "sandw": 2794,
      "mark": 2795,
      "gross": 2796,
      "wards": 2797,
      "twice": 2798,
      "question": 2799,
      "dive": 2800,
      "drinks": 2801,
      "security": 2802,
      "lay": 2803,
      "opp": 2804,
      "vest": 2805,
      "environment": 2806,
      "cos": 2807,
      "across": 2808,
      "chili": 2809,
      "million": 2810,
      "highschool": 2811,
      "ular": 2812,
      "enti": 2813,
      "beans": 2814,
      "volley": 2815,
      "hotel": 2816,
      "40": 2817,
      "ip": 2818,
      "rat": 2819,
      "treat": 2820,
      "general": 2821,
      "toyo": 2822,
      "scientist": 2823,
      "audition": 2824,
      "acce": 2825,
      "kitche": 2826,
      "smooth": 2827,
      "retri": 2828,
      "flying": 2829,
      "bulous": 2830,
      "11": 2831,
      "hier": 2832,
      "cover": 2833,
      "paid": 2834,
      "baked": 2835,
      "construction": 2836,
      "kitchen": 2837,
      "retriever": 2838,
      "nick": 2839,
      "lifestyle": 2840,
      "films": 2841,
      "bummer": 2842,
      "smile": 2843,
      "figure": 2844,
      "rocks": 2845,
      "sundays": 2846,
      "travelling": 2847,
      "teachers": 2848,
      "tons": 2849,
      "holidays": 2850,
      "cost": 2851,
      "vil": 2852,
      "nose": 2853,
      "bert": 2854,
      "soul": 2855,
      "nas": 2856,
      "nap": 2857,
      "indian": 2858,
      "cling": 2859,
      "parties": 2860,
      "rid": 2861,
      "sign": 2862,
      "telling": 2863,
      "brand": 2864,
      "snakes": 2865,
      "anxiety": 2866,
      "300": 2867,
      "honey": 2868,
      "half": 2869,
      "cow": 2870,
      "bands": 2871,
      "jects": 2872,
      "fascin": 2873,
      "nephews": 2874,
      "inside": 2875,
      "deaf": 2876,
      "donna": 2877,
      "gal": 2878,
      "babies": 2879,
      "cashier": 2880,
      "kitten": 2881,
      "dc": 2882,
      "dres": 2883,
      "fabulous": 2884,
      "teaches": 2885,
      "rural": 2886,
      "bum": 2887,
      "adventure": 2888,
      "inspir": 2889,
      "halo": 2890,
      "motion": 2891,
      "chess": 2892,
      "volunteering": 2893,
      "alcohol": 2894,
      "front": 2895,
      "holiday": 2896,
      "irty": 2897,
      "perry": 2898,
      "third": 2899,
      "bird": 2900,
      "allo": 2901,
      "divorce": 2902,
      "straw": 2903,
      "tomatoes": 2904,
      "hawa": 2905,
      "chang": 2906,
      "gosh": 2907,
      "conf": 2908,
      "folks": 2909,
      "strawber": 2910,
      "ph": 2911,
      "panc": 2912,
      "wis": 2913,
      "cruise": 2914,
      "len": 2915,
      "atten": 2916,
      "verage": 2917,
      "popcorn": 2918,
      "youre": 2919,
      "trail": 2920,
      "finance": 2921,
      "parent": 2922,
      "nuts": 2923,
      "particular": 2924,
      "system": 2925,
      "ired": 2926,
      "prince": 2927,
      "oni": 2928,
      "size": 2929,
      "grandparents": 2930,
      "athletic": 2931,
      "tan": 2932,
      "point": 2933,
      "longer": 2934,
      "clients": 2935,
      "products": 2936,
      "dang": 2937,
      "musical": 2938,
      "basically": 2939,
      "flavor": 2940,
      "eth": 2941,
      "shep": 2942,
      "electric": 2943,
      "worst": 2944,
      "cles": 2945,
      "dio": 2946,
      "feels": 2947,
      "drives": 2948,
      "technology": 2949,
      "raining": 2950,
      "wise": 2951,
      "island": 2952,
      "peppers": 2953,
      "fest": 2954,
      "grades": 2955,
      "intro": 2956,
      "thinks": 2957,
      "problems": 2958,
      "temp": 2959,
      "cooked": 2960,
      "pretend": 2961,
      "racing": 2962,
      "rict": 2963,
      "depends": 2964,
      "specif": 2965,
      "ists": 2966,
      "ami": 2967,
      "els": 2968,
      "circus": 2969,
      "ao": 2970,
      "hum": 2971,
      "pand": 2972,
      "brownies": 2973,
      "gummy": 2974,
      "pir": 2975,
      "knee": 2976,
      "avo": 2977,
      "becoming": 2978,
      "pig": 2979,
      "hahah": 2980,
      "gaming": 2981,
      "ging": 2982,
      "wake": 2983,
      "haps": 2984,
      "itive": 2985,
      "sug": 2986,
      "needed": 2987,
      "reality": 2988,
      "heights": 2989,
      "attention": 2990,
      "river": 2991,
      "exam": 2992,
      "broken": 2993,
      "agency": 2994,
      "careful": 2995,
      "rainy": 2996,
      "annoying": 2997,
      "dry": 2998,
      "raise": 2999,
      "appre": 3000,
      "phones": 3001,
      "occas": 3002,
      "dess": 3003,
      "losing": 3004,
      "dyed": 3005,
      "activities": 3006,
      "hawaii": 3007,
      "insp": 3008,
      "throw": 3009,
      "squ": 3010,
      "vir": 3011,
      "runner": 3012,
      "serve": 3013,
      "000": 3014,
      "katy": 3015,
      "foreign": 3016,
      "headed": 3017,
      "jump": 3018,
      "choir": 3019,
      "comfortable": 3020,
      "21": 3021,
      "tiny": 3022,
      "sauce": 3023,
      "toyota": 3024,
      "ahahah": 3025,
      "mist": 3026,
      "ahh": 3027,
      "silly": 3028,
      "pancakes": 3029,
      "appreci": 3030,
      "rs": 3031,
      "ista": 3032,
      "stephen": 3033,
      "wing": 3034,
      "beef": 3035,
      "engaged": 3036,
      "shir": 3037,
      "gay": 3038,
      "newsp": 3039,
      "dent": 3040,
      "inclu": 3041,
      "washington": 3042,
      "india": 3043,
      "hurts": 3044,
      "sched": 3045,
      "depres": 3046,
      "juice": 3047,
      "schedu": 3048,
      "rots": 3049,
      "grass": 3050,
      "skit": 3051,
      "custo": 3052,
      "swee": 3053,
      "handle": 3054,
      "mansion": 3055,
      "sweethe": 3056,
      "gent": 3057,
      "owner": 3058,
      "dads": 3059,
      "rece": 3060,
      "sey": 3061,
      "bles": 3062,
      "medit": 3063,
      "normal": 3064,
      "karao": 3065,
      "journalist": 3066,
      "wro": 3067,
      "tutor": 3068,
      "natural": 3069,
      "deliver": 3070,
      "bruno": 3071,
      "wrote": 3072,
      "estate": 3073,
      "kins": 3074,
      "sold": 3075,
      "blame": 3076,
      "finding": 3077,
      "ucky": 3078,
      "marry": 3079,
      "complain": 3080,
      "ville": 3081,
      "diner": 3082,
      "repair": 3083,
      "coin": 3084,
      "knows": 3085,
      "elvis": 3086,
      "programming": 3087,
      "pounds": 3088,
      "trump": 3089,
      "pati": 3090,
      "roommates": 3091,
      "software": 3092,
      "shor": 3093,
      "ranch": 3094,
      "ooh": 3095,
      "wives": 3096,
      "joke": 3097,
      "finan": 3098,
      "angry": 3099,
      "painter": 3100,
      "karaoke": 3101,
      "var": 3102,
      "lob": 3103,
      "commer": 3104,
      "barista": 3105,
      "awe": 3106,
      "inary": 3107,
      "pean": 3108,
      "perhaps": 3109,
      "60": 3110,
      "ety": 3111,
      "sunset": 3112,
      "graphic": 3113,
      "beets": 3114,
      "dos": 3115,
      "kers": 3116,
      "clubs": 3117,
      "avoid": 3118,
      "suggest": 3119,
      "fif": 3120,
      "childhood": 3121,
      "trips": 3122,
      "heading": 3123,
      "interns": 3124,
      "logist": 3125,
      "caf": 3126,
      "tax": 3127,
      "roller": 3128,
      "respon": 3129,
      "dolls": 3130,
      "etc": 3131,
      "ckles": 3132,
      "biggest": 3133,
      "sla": 3134,
      "const": 3135,
      "commercial": 3136,
      "internship": 3137,
      "braces": 3138,
      "mend": 3139,
      "freel": 3140,
      "bly": 3141,
      "hat": 3142,
      "kevin": 3143,
      "tered": 3144,
      "biology": 3145,
      "barely": 3146,
      "ador": 3147,
      "trainer": 3148,
      "26": 3149,
      "eag": 3150,
      "acho": 3151,
      "maine": 3152,
      "desert": 3153,
      "gging": 3154,
      "peaceful": 3155,
      "pep": 3156,
      "supp": 3157,
      "knitting": 3158,
      "russia": 3159,
      "pire": 3160,
      "cudd": 3161,
      "dou": 3162,
      "loud": 3163,
      "mood": 3164,
      "ose": 3165,
      "pood": 3166,
      "condo": 3167,
      "taken": 3168,
      "mini": 3169,
      "buying": 3170,
      "fingers": 3171,
      "jess": 3172,
      "wings": 3173,
      "vered": 3174,
      "catching": 3175,
      "greetings": 3176,
      "egg": 3177,
      "ime": 3178,
      "ond": 3179,
      "coke": 3180,
      "recor": 3181,
      "snack": 3182,
      "instructor": 3183,
      "attr": 3184,
      "kent": 3185,
      "def": 3186,
      "dear": 3187,
      "llywood": 3188,
      "adorable": 3189,
      "pepsi": 3190,
      "cking": 3191,
      "gra": 3192,
      "oly": 3193,
      "strict": 3194,
      "cross": 3195,
      "send": 3196,
      "barbe": 3197,
      "fitness": 3198,
      "dust": 3199,
      "ense": 3200,
      "comedi": 3201,
      "lobster": 3202,
      "ith": 3203,
      "amed": 3204,
      "mush": 3205,
      "festi": 3206,
      "occasion": 3207,
      "dentist": 3208,
      "jen": 3209,
      "bulldog": 3210,
      "lou": 3211,
      "metall": 3212,
      "alien": 3213,
      "tries": 3214,
      "smoking": 3215,
      "olymp": 3216,
      "vam": 3217,
      "vera": 3218,
      "rol": 3219,
      "spot": 3220,
      "interests": 3221,
      "gambl": 3222,
      "farmers": 3223,
      "memor": 3224,
      "saying": 3225,
      "magaz": 3226,
      "russian": 3227,
      "cheerlead": 3228,
      "buddy": 3229,
      "familiar": 3230,
      "35": 3231,
      "pack": 3232,
      "covered": 3233,
      "overseas": 3234,
      "situ": 3235,
      "handful": 3236,
      "competitive": 3237,
      "tickets": 3238,
      "wars": 3239,
      "antly": 3240,
      "mul": 3241,
      "shoot": 3242,
      "purse": 3243,
      "engineering": 3244,
      "metallica": 3245,
      "ded": 3246,
      "ove": 3247,
      "cupcakes": 3248,
      "23": 3249,
      "allergy": 3250,
      "urs": 3251,
      "blues": 3252,
      "studied": 3253,
      "kentucky": 3254,
      "dia": 3255,
      "stor": 3256,
      "belt": 3257,
      "grandson": 3258,
      "giving": 3259,
      "explore": 3260,
      "volleyball": 3261,
      "marathon": 3262,
      "lves": 3263,
      "mir": 3264,
      "pear": 3265,
      "whenever": 3266,
      "niture": 3267,
      "furniture": 3268,
      "kayaking": 3269,
      "scrat": 3270,
      "earth": 3271,
      "chase": 3272,
      "dental": 3273,
      "clear": 3274,
      "fro": 3275,
      "princess": 3276,
      "itor": 3277,
      "stic": 3278,
      "eater": 3279,
      "tage": 3280,
      "salon": 3281,
      "drop": 3282,
      "pedi": 3283,
      "potato": 3284,
      "oregon": 3285,
      "schedule": 3286,
      "hollywood": 3287,
      "habit": 3288,
      "iled": 3289,
      "wondering": 3290,
      "babysit": 3291,
      "ferrari": 3292,
      "pants": 3293,
      "bugs": 3294,
      "dest": 3295,
      "thankfully": 3296,
      "surpr": 3297,
      "missing": 3298,
      "packing": 3299,
      "sweetheart": 3300,
      "bright": 3301,
      "tial": 3302,
      "civic": 3303,
      "commend": 3304,
      "winning": 3305,
      "jewel": 3306,
      "uts": 3307,
      "indie": 3308,
      "enjoyed": 3309,
      "owns": 3310,
      "ible": 3311,
      "sta": 3312,
      "madonna": 3313,
      "studies": 3314,
      "stranger": 3315,
      "newspaper": 3316,
      "nacho": 3317,
      "lla": 3318,
      "beers": 3319,
      "united": 3320,
      "acted": 3321,
      "creating": 3322,
      "choose": 3323,
      "programmer": 3324,
      "bagels": 3325,
      "jewelry": 3326,
      "acks": 3327,
      "carry": 3328,
      "icycle": 3329,
      "bble": 3330,
      "conne": 3331,
      "spelling": 3332,
      "dislike": 3333,
      "average": 3334,
      "brain": 3335,
      "sl": 3336,
      "behind": 3337,
      "unge": 3338,
      "spears": 3339,
      "fairs": 3340,
      "virgin": 3341,
      "till": 3342,
      "aska": 3343,
      "floor": 3344,
      "crafts": 3345,
      "mand": 3346,
      "coworker": 3347,
      "visited": 3348,
      "talented": 3349,
      "suc": 3350,
      "bother": 3351,
      "alize": 3352,
      "organized": 3353,
      "burritos": 3354,
      "louis": 3355,
      "loso": 3356,
      "loaf": 3357,
      "leaving": 3358,
      "philoso": 3359,
      "entertain": 3360,
      "iders": 3361,
      "spiders": 3362,
      "amazon": 3363,
      "biograp": 3364,
      "exhausting": 3365,
      "direction": 3366,
      "tore": 3367,
      "lex": 3368,
      "advert": 3369,
      "coli": 3370,
      "essor": 3371,
      "maid": 3372,
      "trains": 3373,
      "countries": 3374,
      "desp": 3375,
      "80s": 3376,
      "itch": 3377,
      "fear": 3378,
      "easily": 3379,
      "usual": 3380,
      "chery": 3381,
      "fied": 3382,
      "meatloaf": 3383,
      "recy": 3384,
      "calm": 3385,
      "ocd": 3386,
      "reception": 3387,
      "los": 3388,
      "load": 3389,
      "whis": 3390,
      "schools": 3391,
      "ground": 3392,
      "carrots": 3393,
      "shot": 3394,
      "cuis": 3395,
      "published": 3396,
      "nachos": 3397,
      "ee": 3398,
      "cooler": 3399,
      "meatballs": 3400,
      "100": 3401,
      "nasty": 3402,
      "ggl": 3403,
      "lars": 3404,
      "relate": 3405,
      "scholars": 3406,
      "consin": 3407,
      "counts": 3408,
      "brought": 3409,
      "stamps": 3410,
      "wisconsin": 3411,
      "customer": 3412,
      "multi": 3413,
      "resc": 3414,
      "att": 3415,
      "pierc": 3416,
      "pug": 3417,
      "dirty": 3418,
      "ram": 3419,
      "sne": 3420,
      "scoo": 3421,
      "tch": 3422,
      "former": 3423,
      "studio": 3424,
      "weeks": 3425,
      "trad": 3426,
      "disable": 3427,
      "franc": 3428,
      "bald": 3429,
      "socks": 3430,
      "suck": 3431,
      "lord": 3432,
      "contact": 3433,
      "mia": 3434,
      "yuck": 3435,
      "spain": 3436,
      "norm": 3437,
      "pickles": 3438,
      "drove": 3439,
      "compete": 3440,
      "skills": 3441,
      "moti": 3442,
      "complete": 3443,
      "commu": 3444,
      "tasty": 3445,
      "medicine": 3446,
      "acts": 3447,
      "chip": 3448,
      "comedies": 3449,
      "hikes": 3450,
      "ggle": 3451,
      "disabled": 3452,
      "page": 3453,
      "rence": 3454,
      "pleasure": 3455,
      "robot": 3456,
      "lim": 3457,
      "archery": 3458,
      "bee": 3459,
      "carolin": 3460,
      "broc": 3461,
      "taller": 3462,
      "bikes": 3463,
      "virginia": 3464,
      "philosophy": 3465,
      "rice": 3466,
      "twi": 3467,
      "thern": 3468,
      "expect": 3469,
      "stopped": 3470,
      "organic": 3471,
      "fruits": 3472,
      "poodle": 3473,
      "cell": 3474,
      "friendly": 3475,
      "supplies": 3476,
      "gorge": 3477,
      "tha": 3478,
      "greed": 3479,
      "penn": 3480,
      "matter": 3481,
      "omy": 3482,
      "sight": 3483,
      "reach": 3484,
      "ared": 3485,
      "skittles": 3486,
      "inv": 3487,
      "dairy": 3488,
      "britney": 3489,
      "appreciate": 3490,
      "diabet": 3491,
      "francis": 3492,
      "iq": 3493,
      "stinks": 3494,
      "lion": 3495,
      "rob": 3496,
      "voices": 3497,
      "canadian": 3498,
      "normally": 3499,
      "pal": 3500,
      "known": 3501,
      "ddings": 3502,
      "bowl": 3503,
      "jimmy": 3504,
      "ghosts": 3505,
      "scholarship": 3506,
      "icor": 3507,
      "unicor": 3508,
      "events": 3509,
      "project": 3510,
      "originally": 3511,
      "freelance": 3512,
      "upset": 3513,
      "vious": 3514,
      "distr": 3515,
      "fascinating": 3516,
      "zen": 3517,
      "bears": 3518,
      "comple": 3519,
      "nerd": 3520,
      "putting": 3521,
      "involved": 3522,
      "ey": 3523,
      "fisher": 3524,
      "ize": 3525,
      "luckily": 3526,
      "native": 3527,
      "utes": 3528,
      "roommate": 3529,
      "aspir": 3530,
      "appro": 3531,
      "campus": 3532,
      "cabin": 3533,
      "carolina": 3534,
      "rup": 3535,
      "podc": 3536,
      "tran": 3537,
      "vintage": 3538,
      "view": 3539,
      "podcast": 3540,
      "mass": 3541,
      "ery": 3542,
      "blast": 3543,
      "extre": 3544,
      "minutes": 3545,
      "turtles": 3546,
      "airplanes": 3547,
      "oreo": 3548,
      "thrift": 3549,
      "inspiration": 3550,
      "broccoli": 3551,
      "extreme": 3552,
      "uk": 3553,
      "thin": 3554,
      "matches": 3555,
      "encyclo": 3556,
      "ute": 3557,
      "items": 3558,
      "clou": 3559,
      "bookstore": 3560,
      "ferre": 3561,
      "reen": 3562,
      "china": 3563,
      "religion": 3564,
      "gorgeous": 3565,
      "marri": 3566,
      "fighting": 3567,
      "feeding": 3568,
      "doubt": 3569,
      "completely": 3570,
      "chall": 3571,
      "designing": 3572,
      "lasag": 3573,
      "strawberries": 3574,
      "ames": 3575,
      "homes": 3576,
      "reside": 3577,
      "answer": 3578,
      "judge": 3579,
      "dessert": 3580,
      "bear": 3581,
      "ala": 3582,
      "mines": 3583,
      "trained": 3584,
      "match": 3585,
      "bowling": 3586,
      "francisco": 3587,
      "center": 3588,
      "ders": 3589,
      "uh": 3590,
      "ideas": 3591,
      "serving": 3592,
      "spirit": 3593,
      "credit": 3594,
      "position": 3595,
      "brun": 3596,
      "hou": 3597,
      "weddings": 3598,
      "fiance": 3599,
      "thrill": 3600,
      "iguanas": 3601,
      "invest": 3602,
      "suit": 3603,
      "rules": 3604,
      "dishes": 3605,
      "possible": 3606,
      "receptionist": 3607,
      "iss": 3608,
      "worse": 3609,
      "tsbur": 3610,
      "woke": 3611,
      "cheesecake": 3612,
      "pittsbur": 3613,
      "characters": 3614,
      "commute": 3615,
      "option": 3616,
      "wide": 3617,
      "ahu": 3618,
      "settle": 3619,
      "alaska": 3620,
      "itect": 3621,
      "iling": 3622,
      "fallon": 3623,
      "architect": 3624,
      "electron": 3625,
      "exhausted": 3626,
      "umbers": 3627,
      "physical": 3628,
      "depressed": 3629,
      "weak": 3630,
      "moped": 3631,
      "ances": 3632,
      "comedian": 3633,
      "thurs": 3634,
      "trade": 3635,
      "constantly": 3636,
      "incred": 3637,
      "honor": 3638,
      "scri": 3639,
      "shoo": 3640,
      "paying": 3641,
      "target": 3642,
      "lasagna": 3643,
      "alachi": 3644,
      "hips": 3645,
      "broad": 3646,
      "path": 3647,
      "cookie": 3648,
      "grandkids": 3649,
      "appalachi": 3650,
      "appalachian": 3651,
      "avid": 3652,
      "alter": 3653,
      "scout": 3654,
      "master": 3655,
      "birds": 3656,
      "bartender": 3657,
      "prom": 3658,
      "raising": 3659,
      "snowboard": 3660,
      "torian": 3661,
      "rd": 3662,
      "yup": 3663,
      "uncle": 3664,
      "retirement": 3665,
      "transl": 3666,
      "cows": 3667,
      "unique": 3668,
      "views": 3669,
      "lin": 3670,
      "sour": 3671,
      "otic": 3672,
      "ustr": 3673,
      "anyways": 3674,
      "gamer": 3675,
      "speed": 3676,
      "grandpa": 3677,
      "freak": 3678,
      "coor": 3679,
      "tips": 3680,
      "fellow": 3681,
      "bras": 3682,
      "case": 3683,
      "tunes": 3684,
      "therapist": 3685,
      "financial": 3686,
      "3rd": 3687,
      "rare": 3688,
      "rect": 3689,
      "shame": 3690,
      "wheelchair": 3691,
      "lifting": 3692,
      "ints": 3693,
      "sets": 3694,
      "ada": 3695,
      "wanting": 3696,
      "girlfriends": 3697,
      "hubby": 3698,
      "dying": 3699,
      "shops": 3700,
      "killed": 3701,
      "salads": 3702,
      "marriage": 3703,
      "32": 3704,
      "mess": 3705,
      "professor": 3706,
      "photographer": 3707,
      "fighter": 3708,
      "whiskey": 3709,
      "motiv": 3710,
      "oil": 3711,
      "phar": 3712,
      "uc": 3713,
      "toto": 3714,
      "recent": 3715,
      "secretary": 3716,
      "recipe": 3717,
      "aqu": 3718,
      "total": 3719,
      "beaches": 3720,
      "sex": 3721,
      "irma": 3722,
      "martial": 3723,
      "candles": 3724,
      "publishing": 3725,
      "dn": 3726,
      "eight": 3727,
      "pical": 3728,
      "recommend": 3729,
      "prepar": 3730,
      "baller": 3731,
      "papers": 3732,
      "competitions": 3733,
      "preparing": 3734,
      "5th": 3735,
      "pride": 3736,
      "caught": 3737,
      "champ": 3738,
      "miami": 3739,
      "weights": 3740,
      "medium": 3741,
      "clowns": 3742,
      "ikes": 3743,
      "james": 3744,
      "atl": 3745,
      "colo": 3746,
      "conver": 3747,
      "conven": 3748,
      "rights": 3749,
      "respect": 3750,
      "cure": 3751,
      "vegetable": 3752,
      "picked": 3753,
      "models": 3754,
      "posed": 3755,
      "gymnast": 3756,
      "zebras": 3757,
      "steps": 3758,
      "decide": 3759,
      "dre": 3760,
      "jello": 3761,
      "nascar": 3762,
      "magazine": 3763,
      "ki": 3764,
      "beag": 3765,
      "bil": 3766,
      "autograp": 3767,
      "gf": 3768,
      "gur": 3769,
      "gender": 3770,
      "sil": 3771,
      "compan": 3772,
      "quickly": 3773,
      "aquari": 3774,
      "spouse": 3775,
      "bees": 3776,
      "iches": 3777,
      "dig": 3778,
      "husky": 3779,
      "picture": 3780,
      "contacts": 3781,
      "neighborhood": 3782,
      "sandwiches": 3783,
      "ied": 3784,
      "weld": 3785,
      "worries": 3786,
      "adam": 3787,
      "daycare": 3788,
      "grab": 3789,
      "cheap": 3790,
      "keeper": 3791,
      "winters": 3792,
      "entire": 3793,
      "tooth": 3794,
      "mmm": 3795,
      "nieces": 3796,
      "awhile": 3797,
      "padd": 3798,
      "col": 3799,
      "faster": 3800,
      "against": 3801,
      "hamburgers": 3802,
      "pony": 3803,
      "heavy": 3804,
      "certainly": 3805,
      "twilight": 3806,
      "lines": 3807,
      "yikes": 3808,
      "attor": 3809,
      "broadway": 3810,
      "attorney": 3811,
      "fry": 3812,
      "mba": 3813,
      "fused": 3814,
      "mothers": 3815,
      "salsa": 3816,
      "nike": 3817,
      "scratch": 3818,
      "advertising": 3819,
      "24": 3820,
      "equ": 3821,
      "ctic": 3822,
      "cafe": 3823,
      "houston": 3824,
      "fill": 3825,
      "lvani": 3826,
      "toys": 3827,
      "sorts": 3828,
      "planned": 3829,
      "daddy": 3830,
      "dealing": 3831,
      "political": 3832,
      "bility": 3833,
      "lvania": 3834,
      "ris": 3835,
      "loc": 3836,
      "decent": 3837,
      "lifeguard": 3838,
      "sites": 3839,
      "pursu": 3840,
      "calls": 3841,
      "crush": 3842,
      "twenty": 3843,
      "paddle": 3844,
      "agreed": 3845,
      "kale": 3846,
      "worms": 3847,
      "shell": 3848,
      "drank": 3849,
      "barb": 3850,
      "soup": 3851,
      "clouds": 3852,
      "ship": 3853,
      "tofu": 3854,
      "ald": 3855,
      "asth": 3856,
      "acy": 3857,
      "pittsburgh": 3858,
      "ient": 3859,
      "rings": 3860,
      "legs": 3861,
      "maids": 3862,
      "angeles": 3863,
      "joined": 3864,
      "aquarium": 3865,
      "mur": 3866,
      "theat": 3867,
      "rides": 3868,
      "tiring": 3869,
      "creep": 3870,
      "lucy": 3871,
      "artistic": 3872,
      "commit": 3873,
      "antique": 3874,
      "dow": 3875,
      "iceland": 3876,
      "boats": 3877,
      "enjoyable": 3878,
      "mommy": 3879,
      "related": 3880,
      "technic": 3881,
      "cuisine": 3882,
      "technician": 3883,
      "ribs": 3884,
      "preac": 3885,
      "chips": 3886,
      "painted": 3887,
      "seriously": 3888,
      "vanilla": 3889,
      "pandas": 3890,
      "hilar": 3891,
      "parts": 3892,
      "keys": 3893,
      "bf": 3894,
      "oy": 3895,
      "ras": 3896,
      "anne": 3897,
      "drake": 3898,
      "veggie": 3899,
      "literally": 3900,
      "remo": 3901,
      "awake": 3902,
      "insane": 3903,
      "turns": 3904,
      "boxer": 3905,
      "osite": 3906,
      "opposite": 3907,
      "ences": 3908,
      "web": 3909,
      "joe": 3910,
      "chilly": 3911,
      "skydive": 3912,
      "raw": 3913,
      "cycling": 3914,
      "lights": 3915,
      "skydiving": 3916,
      "covering": 3917,
      "colored": 3918,
      "45": 3919,
      "remind": 3920,
      "anni": 3921,
      "debt": 3922,
      "angers": 3923,
      "versary": 3924,
      "relationships": 3925,
      "centr": 3926,
      "slave": 3927,
      "anniversary": 3928,
      "rarely": 3929,
      "vada": 3930,
      "loss": 3931,
      "beats": 3932,
      "nevada": 3933,
      "urban": 3934,
      "headache": 3935,
      "mention": 3936,
      "pairs": 3937,
      "weed": 3938,
      "ohh": 3939,
      "brings": 3940,
      "diego": 3941,
      "laptop": 3942,
      "coincid": 3943,
      "jason": 3944,
      "ined": 3945,
      "anat": 3946,
      "bubble": 3947,
      "homeless": 3948,
      "chihu": 3949,
      "steel": 3950,
      "alcoholic": 3951,
      "chihuahu": 3952,
      "obs": 3953,
      "escape": 3954,
      "sweater": 3955,
      "dorm": 3956,
      "ballerina": 3957,
      "asthma": 3958,
      "cob": 3959,
      "gut": 3960,
      "sweat": 3961,
      "suburbs": 3962,
      "cosplay": 3963,
      "anatomy": 3964,
      "fed": 3965,
      "orph": 3966,
      "arc": 3967,
      "rapper": 3968,
      "ilt": 3969,
      "teller": 3970,
      "fires": 3971,
      "dave": 3972,
      "camera": 3973,
      "accepted": 3974,
      "iam": 3975,
      "onto": 3976,
      "abil": 3977,
      "simil": 3978,
      "walked": 3979,
      "parag": 3980,
      "binge": 3981,
      "fisherman": 3982,
      "similar": 3983,
      "ending": 3984,
      "cler": 3985,
      "missed": 3986,
      "adopt": 3987,
      "addicted": 3988,
      "depart": 3989,
      "mum": 3990,
      "bless": 3991,
      "barbie": 3992,
      "fights": 3993,
      "kitty": 3994,
      "veteran": 3995,
      "protein": 3996,
      "commercials": 3997,
      "gambling": 3998,
      "department": 3999,
      "ann": 4000,
      "eral": 4001,
      "perform": 4002,
      "activity": 4003,
      "cree": 4004,
      "dj": 4005,
      "lame": 4006,
      "vine": 4007,
      "allow": 4008,
      "scu": 4009,
      "scream": 4010,
      "trek": 4011,
      "therapy": 4012,
      "eventually": 4013,
      "environmental": 4014,
      "bri": 4015,
      "crow": 4016,
      "nash": 4017,
      "nold": 4018,
      "budd": 4019,
      "ardy": 4020,
      "max": 4021,
      "convers": 4022,
      "quar": 4023,
      "tures": 4024,
      "tennes": 4025,
      "southern": 4026,
      "hilarious": 4027,
      "nashville": 4028,
      "dam": 4029,
      "nancy": 4030,
      "rise": 4031,
      "sir": 4032,
      "based": 4033,
      "mont": 4034,
      "thoughts": 4035,
      "pression": 4036,
      "extremely": 4037,
      "preacher": 4038,
      "insta": 4039,
      "heck": 4040,
      "rome": 4041,
      "ette": 4042,
      "geo": 4043,
      "agent": 4044,
      "greece": 4045,
      "earn": 4046,
      "duty": 4047,
      "charity": 4048,
      "court": 4049,
      "searching": 4050,
      "legal": 4051,
      "psychology": 4052,
      "aspiring": 4053,
      "77": 4054,
      "mater": 4055,
      "toe": 4056,
      "covery": 4057,
      "verse": 4058,
      "sylvania": 4059,
      "david": 4060,
      "doors": 4061,
      "jun": 4062,
      "aging": 4063,
      "tutori": 4064,
      "jeop": 4065,
      "scotch": 4066,
      "pearl": 4067,
      "jeopardy": 4068,
      "emotion": 4069,
      "jes": 4070,
      "kic": 4071,
      "range": 4072,
      "asparag": 4073,
      "tool": 4074,
      "greek": 4075,
      "courses": 4076,
      "orphan": 4077,
      "asparagus": 4078,
      "bicycle": 4079,
      "lac": 4080,
      "soo": 4081,
      "ude": 4082,
      "gotten": 4083,
      "otherwise": 4084,
      "overweight": 4085,
      "burn": 4086,
      "kick": 4087,
      "wast": 4088,
      "kept": 4089,
      "arnold": 4090,
      "chee": 4091,
      "brow": 4092,
      "nearby": 4093,
      "killing": 4094,
      "bmw": 4095,
      "aly": 4096,
      "asked": 4097,
      "exotic": 4098,
      "spell": 4099,
      "creed": 4100,
      "serv": 4101,
      "retiring": 4102,
      "dressing": 4103,
      "tradition": 4104,
      "ai": 4105,
      "lam": 4106,
      "pork": 4107,
      "touch": 4108,
      "requ": 4109,
      "doo": 4110,
      "stink": 4111,
      "minute": 4112,
      "impro": 4113,
      "jacob": 4114,
      "picky": 4115,
      "control": 4116,
      "ginger": 4117,
      "22": 4118,
      "tree": 4119,
      "swift": 4120,
      "steaks": 4121,
      "barbecu": 4122,
      "tennessee": 4123,
      "instagram": 4124,
      "ahead": 4125,
      "saf": 4126,
      "tay": 4127,
      "goods": 4128,
      "cil": 4129,
      "decorate": 4130,
      "wrestling": 4131,
      "vampire": 4132,
      "alternative": 4133,
      "enders": 4134,
      "germany": 4135,
      "blackjack": 4136,
      "rooms": 4137,
      "paintings": 4138,
      "scar": 4139,
      "glu": 4140,
      "society": 4141,
      "pepperoni": 4142,
      "battle": 4143,
      "ila": 4144,
      "owned": 4145,
      "bath": 4146,
      "waking": 4147,
      "chasing": 4148,
      "tours": 4149,
      "clerk": 4150,
      "6th": 4151,
      "dding": 4152,
      "unhealthy": 4153,
      "hardly": 4154,
      "supper": 4155,
      "border": 4156,
      "laughing": 4157,
      "deploy": 4158,
      "198": 4159,
      "hippie": 4160,
      "ial": 4161,
      "assu": 4162,
      "rug": 4163,
      "clar": 4164,
      "promo": 4165,
      "larp": 4166,
      "rush": 4167,
      "coincidence": 4168,
      "fc": 4169,
      "vals": 4170,
      "arab": 4171,
      "gover": 4172,
      "pile": 4173,
      "jeff": 4174,
      "closest": 4175,
      "random": 4176,
      "opin": 4177,
      "pennsylvania": 4178,
      "sent": 4179,
      "vive": 4180,
      "thick": 4181,
      "hoe": 4182,
      "adult": 4183,
      "alie": 4184,
      "creat": 4185,
      "interior": 4186,
      "kittens": 4187,
      "blow": 4188,
      "yay": 4189,
      "beast": 4190,
      "salt": 4191,
      "drummer": 4192,
      "fixed": 4193,
      "terrified": 4194,
      "caffe": 4195,
      "tes": 4196,
      "hectic": 4197,
      "alex": 4198,
      "bulls": 4199,
      "deer": 4200,
      "droo": 4201,
      "paramed": 4202,
      "graders": 4203,
      "suppor": 4204,
      "gather": 4205,
      "gail": 4206,
      "jud": 4207,
      "lawyers": 4208,
      "banker": 4209,
      "viously": 4210,
      "rick": 4211,
      "orle": 4212,
      "daydream": 4213,
      "demand": 4214,
      "mach": 4215,
      "humor": 4216,
      "clip": 4217,
      "gamble": 4218,
      "giant": 4219,
      "sof": 4220,
      "iana": 4221,
      "puzz": 4222,
      "trick": 4223,
      "surround": 4224,
      "fluent": 4225,
      "responsi": 4226,
      "success": 4227,
      "brunch": 4228,
      "converti": 4229,
      "ibm": 4230,
      "reg": 4231,
      "soap": 4232,
      "tiger": 4233,
      "unt": 4234,
      "uses": 4235,
      "pos": 4236,
      "drama": 4237,
      "graduating": 4238,
      "austin": 4239,
      "develop": 4240,
      "thursday": 4241,
      "numbers": 4242,
      "stan": 4243,
      "projects": 4244,
      "laid": 4245,
      "desk": 4246,
      "adventures": 4247,
      "creek": 4248,
      "conversation": 4249,
      "bis": 4250,
      "hm": 4251,
      "reject": 4252,
      "foster": 4253,
      "puer": 4254,
      "mornings": 4255,
      "occup": 4256,
      "swam": 4257,
      "allowed": 4258,
      "quarter": 4259,
      "damn": 4260,
      "docu": 4261,
      "caring": 4262,
      "symp": 4263,
      "cash": 4264,
      "louisiana": 4265,
      "electronic": 4266,
      "shooting": 4267,
      "steelers": 4268,
      "puerto": 4269,
      "dunge": 4270,
      "eigh": 4271,
      "ninten": 4272,
      "relieve": 4273,
      "forgot": 4274,
      "eats": 4275,
      "travels": 4276,
      "pull": 4277,
      "grading": 4278,
      "tholic": 4279,
      "stays": 4280,
      "rapids": 4281,
      "sleepy": 4282,
      "exercising": 4283,
      "catholic": 4284,
      "communic": 4285,
      "jerry": 4286,
      "peanuts": 4287,
      "creepy": 4288,
      "nintendo": 4289,
      "fund": 4290,
      "prison": 4291,
      "farms": 4292,
      "survive": 4293,
      "basement": 4294,
      "nug": 4295,
      "lizards": 4296,
      "intense": 4297,
      "shine": 4298,
      "mail": 4299,
      "fired": 4300,
      "jersey": 4301,
      "sponge": 4302,
      "kayak": 4303,
      "shepard": 4304,
      "atlanta": 4305,
      "gluten": 4306,
      "evil": 4307,
      "eclip": 4308,
      "ised": 4309,
      "aside": 4310,
      "accent": 4311,
      "awww": 4312,
      "blond": 4313,
      "patter": 4314,
      "motorcycles": 4315,
      "situation": 4316,
      "chihuahua": 4317,
      "caffeine": 4318,
      "gila": 4319,
      "recovering": 4320,
      "strangers": 4321,
      "vacations": 4322,
      "hence": 4323,
      "dungeons": 4324,
      "goalie": 4325,
      "gotcha": 4326,
      "contr": 4327,
      "pense": 4328,
      "minist": 4329,
      "flash": 4330,
      "suspense": 4331,
      "distance": 4332,
      "specifically": 4333,
      "translator": 4334,
      "swell": 4335,
      "oof": 4336,
      "acade": 4337,
      "shouldn": 4338,
      "stayed": 4339,
      "sale": 4340,
      "particip": 4341,
      "tutorials": 4342,
      "70": 4343,
      "lting": 4344,
      "cheeseburgers": 4345,
      "addiction": 4346,
      "storm": 4347,
      "scooter": 4348,
      "floy": 4349,
      "artic": 4350,
      "typical": 4351,
      "pretz": 4352,
      "troo": 4353,
      "landsc": 4354,
      "snor": 4355,
      "vens": 4356,
      "crash": 4357,
      "shepher": 4358,
      "podcasts": 4359,
      "paramedic": 4360,
      "orleans": 4361,
      "floyd": 4362,
      "eld": 4363,
      "above": 4364,
      "upstate": 4365,
      "gee": 4366,
      "typing": 4367,
      "proper": 4368,
      "healthier": 4369,
      "president": 4370,
      "flip": 4371,
      "crab": 4372,
      "midwest": 4373,
      "golfing": 4374,
      "gift": 4375,
      "shirt": 4376,
      "inju": 4377,
      "heat": 4378,
      "alg": 4379,
      "tigers": 4380,
      "abi": 4381,
      "fake": 4382,
      "toronto": 4383,
      "monday": 4384,
      "tones": 4385,
      "flight": 4386,
      "scares": 4387,
      "spongebob": 4388,
      "pons": 4389,
      "editing": 4390,
      "peoples": 4391,
      "tors": 4392,
      "closet": 4393,
      "coupons": 4394,
      "ponies": 4395,
      "kies": 4396,
      "wealth": 4397,
      "goals": 4398,
      "countryside": 4399,
      "pens": 4400,
      "weekly": 4401,
      "hunter": 4402,
      "shelters": 4403,
      "cutting": 4404,
      "hurricanes": 4405,
      "disappoin": 4406,
      "festivals": 4407,
      "silver": 4408,
      "snorke": 4409,
      "hah": 4410,
      "cattle": 4411,
      "hers": 4412,
      "pottery": 4413,
      "robots": 4414,
      "achieve": 4415,
      "barbecue": 4416,
      "analy": 4417,
      "hired": 4418,
      "etime": 4419,
      "looked": 4420,
      "created": 4421,
      "frustr": 4422,
      "activist": 4423,
      "autism": 4424,
      "rollerbl": 4425,
      "ius": 4426,
      "nine": 4427,
      "ination": 4428,
      "alpac": 4429,
      "sears": 4430,
      "understandable": 4431,
      "majoring": 4432,
      "ggers": 4433,
      "scene": 4434,
      "eagles": 4435,
      "ggling": 4436,
      "shellfish": 4437,
      "taylor": 4438,
      "bigger": 4439,
      "skating": 4440,
      "genius": 4441,
      "garage": 4442,
      "cable": 4443,
      "rep": 4444,
      "vehic": 4445,
      "iti": 4446,
      "enna": 4447,
      "asia": 4448,
      "poe": 4449,
      "minn": 4450,
      "struggle": 4451,
      "temper": 4452,
      "pau": 4453,
      "asper": 4454,
      "wiz": 4455,
      "geon": 4456,
      "delive": 4457,
      "artists": 4458,
      "angel": 4459,
      "macar": 4460,
      "disappoint": 4461,
      "connect": 4462,
      "fits": 4463,
      "ido": 4464,
      "ners": 4465,
      "ading": 4466,
      "lying": 4467,
      "sche": 4468,
      "talks": 4469,
      "planet": 4470,
      "sunshine": 4471,
      "footsteps": 4472,
      "piece": 4473,
      "attending": 4474,
      "rugby": 4475,
      "pan": 4476,
      "tou": 4477,
      "income": 4478,
      "prepare": 4479,
      "appli": 4480,
      "happening": 4481,
      "darn": 4482,
      "collie": 4483,
      "macaroni": 4484,
      "ufc": 4485,
      "mel": 4486,
      "robert": 4487,
      "farming": 4488,
      "freckles": 4489,
      "loyal": 4490,
      "puppies": 4491,
      "formation": 4492,
      "iguana": 4493,
      "changed": 4494,
      "gentle": 4495,
      "pist": 4496,
      "ended": 4497,
      "steal": 4498,
      "treating": 4499,
      "flir": 4500,
      "opened": 4501,
      "freshman": 4502,
      "pedia": 4503,
      "sharks": 4504,
      "minneso": 4505,
      "apo": 4506,
      "within": 4507,
      "jog": 4508,
      "boating": 4509,
      "eaten": 4510,
      "carl": 4511,
      "tale": 4512,
      "thomas": 4513,
      "jamming": 4514,
      "messy": 4515,
      "pumpkin": 4516,
      "dresses": 4517,
      "specific": 4518,
      "abigail": 4519,
      "gag": 4520,
      "sting": 4521,
      "belong": 4522,
      "whit": 4523,
      "ouncer": 4524,
      "ups": 4525,
      "civil": 4526,
      "chees": 4527,
      "mashed": 4528,
      "skinny": 4529,
      "allows": 4530,
      "cked": 4531,
      "dani": 4532,
      "held": 4533,
      "helor": 4534,
      "allie": 4535,
      "text": 4536,
      "pecan": 4537,
      "spaces": 4538,
      "rude": 4539,
      "huskies": 4540,
      "smith": 4541,
      "bachelor": 4542,
      "vana": 4543,
      "consulting": 4544,
      "shirts": 4545,
      "trumpet": 4546,
      "eggplant": 4547,
      "mushroom": 4548,
      "pretzels": 4549,
      "rout": 4550,
      "issed": 4551,
      "dered": 4552,
      "conside": 4553,
      "africa": 4554,
      "carbs": 4555,
      "process": 4556,
      "brat": 4557,
      "skunk": 4558,
      "craving": 4559,
      "considered": 4560,
      "kj": 4561,
      "kyo": 4562,
      "oli": 4563,
      "arent": 4564,
      "scru": 4565,
      "grate": 4566,
      "tells": 4567,
      "cult": 4568,
      "supposed": 4569,
      "apparent": 4570,
      "knees": 4571,
      "introdu": 4572,
      "jessica": 4573,
      "defense": 4574,
      "robotics": 4575,
      "gour": 4576,
      "rp": 4577,
      "tose": 4578,
      "dolp": 4579,
      "etah": 4580,
      "cooks": 4581,
      "astron": 4582,
      "cheetah": 4583,
      "surgeon": 4584,
      "guessing": 4585,
      "vienna": 4586,
      "sandwich": 4587,
      "sticks": 4588,
      "piercings": 4589,
      "lactose": 4590,
      "dolph": 4591,
      "lumber": 4592,
      "nan": 4593,
      "information": 4594,
      "albert": 4595,
      "asle": 4596,
      "grey": 4597,
      "dais": 4598,
      "publisher": 4599,
      "nuggets": 4600,
      "eclipse": 4601,
      "minnesota": 4602,
      "apparently": 4603,
      "asleep": 4604,
      "ires": 4605,
      "tokyo": 4606,
      "hide": 4607,
      "reads": 4608,
      "mage": 4609,
      "compo": 4610,
      "titude": 4611,
      "crocheting": 4612,
      "snowboarding": 4613,
      "emer": 4614,
      "lind": 4615,
      "loye": 4616,
      "asian": 4617,
      "costu": 4618,
      "stew": 4619,
      "falls": 4620,
      "employe": 4621,
      "universe": 4622,
      "skateboarding": 4623,
      "director": 4624,
      "aliens": 4625,
      "pharmac": 4626,
      "bubblegum": 4627,
      "ability": 4628,
      "apolog": 4629,
      "dober": 4630,
      "gossi": 4631,
      "achio": 4632,
      "plumber": 4633,
      "saus": 4634,
      "sleeve": 4635,
      "lakes": 4636,
      "photograph": 4637,
      "touring": 4638,
      "cultures": 4639,
      "occasionally": 4640,
      "pistachio": 4641,
      "geoc": 4642,
      "fridge": 4643,
      "peta": 4644,
      "sax": 4645,
      "casinos": 4646,
      "autographs": 4647,
      "gourmet": 4648,
      "13": 4649,
      "nir": 4650,
      "rn": 4651,
      "ury": 4652,
      "eno": 4653,
      "roit": 4654,
      "ravens": 4655,
      "bbing": 4656,
      "aff": 4657,
      "listened": 4658,
      "quake": 4659,
      "filming": 4660,
      "drugs": 4661,
      "cartoon": 4662,
      "bunny": 4663,
      "detroit": 4664,
      "ethnic": 4665,
      "nirvana": 4666,
      "aire": 4667,
      "hated": 4668,
      "hies": 4669,
      "correct": 4670,
      "flints": 4671,
      "logical": 4672,
      "generally": 4673,
      "various": 4674,
      "biographies": 4675,
      "cket": 4676,
      "gang": 4677,
      "repor": 4678,
      "iso": 4679,
      "ference": 4680,
      "whew": 4681,
      "demo": 4682,
      "clin": 4683,
      "proof": 4684,
      "sesame": 4685,
      "geology": 4686,
      "nment": 4687,
      "zum": 4688,
      "timate": 4689,
      "screen": 4690,
      "enjoys": 4691,
      "latest": 4692,
      "pudding": 4693,
      "nyu": 4694,
      "mustache": 4695,
      "clut": 4696,
      "partying": 4697,
      "condition": 4698,
      "maryland": 4699,
      "government": 4700,
      "puzzles": 4701,
      "zumba": 4702,
      "ranger": 4703,
      "woo": 4704,
      "pops": 4705,
      "cloud": 4706,
      "drones": 4707,
      "perfor": 4708,
      "mysteries": 4709,
      "pumpkins": 4710,
      "rescue": 4711,
      "convertible": 4712,
      "65": 4713,
      "fred": 4714,
      "edic": 4715,
      "bot": 4716,
      "explain": 4717,
      "herbs": 4718,
      "speckles": 4719,
      "sibling": 4720,
      "recycle": 4721,
      "unicorn": 4722,
      "arcade": 4723,
      "softball": 4724,
      "quarterback": 4725,
      "plac": 4726,
      "wolves": 4727,
      "mut": 4728,
      "foodie": 4729,
      "cuz": 4730,
      "waves": 4731,
      "deser": 4732,
      "calling": 4733,
      "corner": 4734,
      "fixing": 4735,
      "annoyed": 4736,
      "niece": 4737,
      "dete": 4738,
      "oled": 4739,
      "stri": 4740,
      "alley": 4741,
      "admir": 4742,
      "teeth": 4743,
      "llowed": 4744,
      "schooled": 4745,
      "guil": 4746,
      "pomer": 4747,
      "anian": 4748,
      "carb": 4749,
      "followed": 4750,
      "lease": 4751,
      "genres": 4752,
      "smells": 4753,
      "humane": 4754,
      "psychologist": 4755,
      "guilty": 4756,
      "pomeranian": 4757,
      "sli": 4758,
      "vit": 4759,
      "greatest": 4760,
      "ania": 4761,
      "chewing": 4762,
      "phies": 4763,
      "trophies": 4764,
      "costco": 4765,
      "clinic": 4766,
      "tling": 4767,
      "towards": 4768,
      "welf": 4769,
      "chew": 4770,
      "helpful": 4771,
      "planner": 4772,
      "survi": 4773,
      "client": 4774,
      "groceries": 4775,
      "micro": 4776,
      "pond": 4777,
      "stanford": 4778,
      "poems": 4779,
      "gaga": 4780,
      "epile": 4781,
      "thous": 4782,
      "vey": 4783,
      "argue": 4784,
      "maker": 4785,
      "lesbi": 4786,
      "trout": 4787,
      "rays": 4788,
      "records": 4789,
      "alpacas": 4790,
      "thousand": 4791,
      "bye": 4792,
      "hbu": 4793,
      "ration": 4794,
      "nobody": 4795,
      "feli": 4796,
      "kiddos": 4797,
      "confused": 4798,
      "swimmer": 4799,
      "ffy": 4800,
      "owen": 4801,
      "authors": 4802,
      "holding": 4803,
      "british": 4804,
      "positive": 4805,
      "diabetic": 4806,
      "doberman": 4807,
      "csi": 4808,
      "pha": 4809,
      "pant": 4810,
      "ym": 4811,
      "moder": 4812,
      "anim": 4813,
      "parking": 4814,
      "secretly": 4815,
      "nephew": 4816,
      "pleasant": 4817,
      "blessed": 4818,
      "options": 4819,
      "incredible": 4820,
      "bare": 4821,
      "jani": 4822,
      "stair": 4823,
      "vermont": 4824,
      "assy": 4825,
      "feelings": 4826,
      "gerald": 4827,
      "crac": 4828,
      "following": 4829,
      "accept": 4830,
      "nickname": 4831,
      "inspired": 4832,
      "limited": 4833,
      "locally": 4834,
      "weap": 4835,
      "greg": 4836,
      "fection": 4837,
      "episo": 4838,
      "snap": 4839,
      "fran": 4840,
      "mustangs": 4841,
      "theatre": 4842,
      "democr": 4843,
      "250": 4844,
      "wic": 4845,
      "hiya": 4846,
      "plate": 4847,
      "rail": 4848,
      "affect": 4849,
      "corpor": 4850,
      "handy": 4851,
      "mistake": 4852,
      "sympho": 4853,
      "tren": 4854,
      "thum": 4855,
      "heal": 4856,
      "hearse": 4857,
      "brewer": 4858,
      "waiter": 4859,
      "harley": 4860,
      "pyram": 4861,
      "spots": 4862,
      "memory": 4863,
      "cheerleading": 4864,
      "responsibility": 4865,
      "occupation": 4866,
      "lumberjack": 4867,
      "thumbs": 4868,
      "nut": 4869,
      "ota": 4870,
      "stat": 4871,
      "steve": 4872,
      "escap": 4873,
      "inder": 4874,
      "istic": 4875,
      "redhead": 4876,
      "everybody": 4877,
      "cheers": 4878,
      "standing": 4879,
      "warmer": 4880,
      "groups": 4881,
      "eagle": 4882,
      "lexus": 4883,
      "encyclopedia": 4884,
      "paul": 4885,
      "dall": 4886,
      "ges": 4887,
      "tx": 4888,
      "buff": 4889,
      "somewhat": 4890,
      "ific": 4891,
      "selfish": 4892,
      "leaves": 4893,
      "micha": 4894,
      "warehouse": 4895,
      "gifted": 4896,
      "changing": 4897,
      "hummus": 4898,
      "dallas": 4899,
      "jasper": 4900,
      "nd": 4901,
      "inet": 4902,
      "greys": 4903,
      "akeet": 4904,
      "muggers": 4905,
      "shore": 4906,
      "parakeet": 4907,
      "breath": 4908,
      "landing": 4909,
      "identical": 4910,
      "peanut": 4911,
      "bits": 4912,
      "dit": 4913,
      "drun": 4914,
      "shad": 4915,
      "hola": 4916,
      "bean": 4917,
      "rious": 4918,
      "watches": 4919,
      "blin": 4920,
      "grated": 4921,
      "checking": 4922,
      "highly": 4923,
      "vote": 4924,
      "mcqueen": 4925,
      "utah": 4926,
      "include": 4927,
      "cuddling": 4928,
      "gymnastics": 4929,
      "kno": 4930,
      "rit": 4931,
      "hol": 4932,
      "copper": 4933,
      "owning": 4934,
      "sweden": 4935,
      "falling": 4936,
      "sciences": 4937,
      "flood": 4938,
      "valedic": 4939,
      "blogs": 4940,
      "heaven": 4941,
      "flavors": 4942,
      "despite": 4943,
      "distracted": 4944,
      "jesus": 4945,
      "railroad": 4946,
      "valedictorian": 4947,
      "29": 4948,
      "dates": 4949,
      "fond": 4950,
      "owe": 4951,
      "reas": 4952,
      "arms": 4953,
      "wore": 4954,
      "files": 4955,
      "katie": 4956,
      "bella": 4957,
      "dollars": 4958,
      "convention": 4959,
      "reasons": 4960,
      "thre": 4961,
      "atric": 4962,
      "ori": 4963,
      "chu": 4964,
      "ryan": 4965,
      "nail": 4966,
      "discovered": 4967,
      "crit": 4968,
      "imaginary": 4969,
      "subtit": 4970,
      "lief": 4971,
      "dresser": 4972,
      "pediatric": 4973,
      "bree": 4974,
      "ji": 4975,
      "iness": 4976,
      "atra": 4977,
      "spr": 4978,
      "sinatra": 4979,
      "uniform": 4980,
      "techn": 4981,
      "ladies": 4982,
      "leader": 4983,
      "celebrity": 4984,
      "despise": 4985,
      "weakness": 4986,
      "gutters": 4987,
      "symphony": 4988,
      "iers": 4989,
      "built": 4990,
      "irt": 4991,
      "spar": 4992,
      "shoe": 4993,
      "ressing": 4994,
      "breaking": 4995,
      "sung": 4996,
      "discovery": 4997,
      "passions": 4998,
      "flies": 4999,
      "backer": 5000,
      "rolled": 5001,
      "samsung": 5002,
      "customers": 5003,
      "challen": 5004,
      "traditional": 5005,
      "cate": 5006,
      "zer": 5007,
      "zania": 5008,
      "attitude": 5009,
      "ises": 5010,
      "hells": 5011,
      "level": 5012,
      "coats": 5013,
      "drix": 5014,
      "whoa": 5015,
      "hamburger": 5016,
      "hendrix": 5017,
      "firefighter": 5018,
      "lifter": 5019,
      "easter": 5020,
      "decorating": 5021,
      "tanzania": 5022,
      "opinion": 5023,
      "gathering": 5024,
      "epilepsy": 5025,
      "pyramids": 5026,
      "lat": 5027,
      "topic": 5028,
      "lli": 5029,
      "argent": 5030,
      "uncomfortable": 5031,
      "cello": 5032,
      "oles": 5033,
      "stone": 5034,
      "ians": 5035,
      "bench": 5036,
      "families": 5037,
      "burrito": 5038,
      "attractive": 5039,
      "creatures": 5040,
      "droopy": 5041,
      "algia": 5042,
      "orioles": 5043,
      "43": 5044,
      "double": 5045,
      "hh": 5046,
      "manta": 5047,
      "stable": 5048,
      "bead": 5049,
      "lean": 5050,
      "amel": 5051,
      "aching": 5052,
      "caramel": 5053,
      "coms": 5054,
      "harder": 5055,
      "tues": 5056,
      "ffs": 5057,
      "sunsets": 5058,
      "drawings": 5059,
      "jean": 5060,
      "nearly": 5061,
      "educated": 5062,
      "invite": 5063,
      "biscu": 5064,
      "snorkeling": 5065,
      "rollerblading": 5066,
      "grateful": 5067,
      "astronaut": 5068,
      "flintstones": 5069,
      "detective": 5070,
      "felix": 5071,
      "athe": 5072,
      "wit": 5073,
      "liber": 5074,
      "failing": 5075,
      "deb": 5076,
      "aware": 5077,
      "pill": 5078,
      "carpen": 5079,
      "grandfather": 5080,
      "downtown": 5081,
      "salmon": 5082,
      "tastes": 5083,
      "bingo": 5084,
      "panda": 5085,
      "idol": 5086,
      "gossip": 5087,
      "michael": 5088,
      "copperfield": 5089,
      "carpenter": 5090,
      "2nd": 5091,
      "site": 5092,
      "tank": 5093,
      "ander": 5094,
      "mario": 5095,
      "brush": 5096,
      "tracy": 5097,
      "greenhouse": 5098,
      "present": 5099,
      "obviously": 5100,
      "boxes": 5101,
      "questions": 5102,
      "mixed": 5103,
      "festival": 5104,
      "expected": 5105,
      "beagle": 5106,
      "cheetos": 5107,
      "beastie": 5108,
      "vehicle": 5109,
      "fairy": 5110,
      "earrings": 5111,
      "dublin": 5112,
      "minal": 5113,
      "coupon": 5114,
      "godfather": 5115,
      "denver": 5116,
      "personality": 5117,
      "successful": 5118,
      "placed": 5119,
      "aris": 5120,
      "sore": 5121,
      "hiring": 5122,
      "administ": 5123,
      "tie": 5124,
      "snu": 5125,
      "snacks": 5126,
      "employment": 5127,
      "specialty": 5128,
      "ferraris": 5129,
      "original": 5130,
      "websites": 5131,
      "vitam": 5132,
      "fart": 5133,
      "jama": 5134,
      "atic": 5135,
      "carni": 5136,
      "iest": 5137,
      "mortal": 5138,
      "childrens": 5139,
      "breast": 5140,
      "linebacker": 5141,
      "salary": 5142,
      "ultimate": 5143,
      "ironic": 5144,
      "violinist": 5145,
      "celebrate": 5146,
      "collies": 5147,
      "multiple": 5148,
      "drunk": 5149,
      "dak": 5150,
      "session": 5151,
      "noble": 5152,
      "hire": 5153,
      "rador": 5154,
      "petting": 5155,
      "geria": 5156,
      "slept": 5157,
      "profit": 5158,
      "dump": 5159,
      "impala": 5160,
      "labrador": 5161,
      "nicke": 5162,
      "fluently": 5163,
      "finger": 5164,
      "colour": 5165,
      "safety": 5166,
      "bachelors": 5167,
      "asse": 5168,
      "notes": 5169,
      "coz": 5170,
      "unwind": 5171,
      "homemade": 5172,
      "collector": 5173,
      "affairs": 5174,
      "closer": 5175,
      "dining": 5176,
      "struggling": 5177,
      "sickness": 5178,
      "written": 5179,
      "shortest": 5180,
      "mirror": 5181,
      "ferrell": 5182,
      "coordin": 5183,
      "dakota": 5184,
      "bach": 5185,
      "races": 5186,
      "ana": 5187,
      "onion": 5188,
      "fault": 5189,
      "background": 5190,
      "ques": 5191,
      "perfection": 5192,
      "glac": 5193,
      "ortun": 5194,
      "foreman": 5195,
      "volcan": 5196,
      "sells": 5197,
      "staring": 5198,
      "pita": 5199,
      "denmark": 5200,
      "opportun": 5201,
      "mushrooms": 5202,
      "promoted": 5203,
      "sausage": 5204,
      "aunt": 5205,
      "cino": 5206,
      "naw": 5207,
      "myalgia": 5208,
      "encou": 5209,
      "levine": 5210,
      "suf": 5211,
      "suits": 5212,
      "tahoe": 5213,
      "malt": 5214,
      "bromyalgia": 5215,
      "chose": 5216,
      "frequ": 5217,
      "styles": 5218,
      "programs": 5219,
      "contin": 5220,
      "toddler": 5221,
      "particularly": 5222,
      "suggestions": 5223,
      "cuddle": 5224,
      "biography": 5225,
      "lindsey": 5226,
      "lesbian": 5227,
      "150": 5228,
      "bone": 5229,
      "cd": 5230,
      "kissed": 5231,
      "lepre": 5232,
      "rod": 5233,
      "bug": 5234,
      "chaun": 5235,
      "mount": 5236,
      "stamp": 5237,
      "possibly": 5238,
      "attack": 5239,
      "champion": 5240,
      "aquariums": 5241,
      "deployed": 5242,
      "landscap": 5243,
      "brewery": 5244,
      "leprechaun": 5245,
      "hits": 5246,
      "image": 5247,
      "isham": 5248,
      "hall": 5249,
      "core": 5250,
      "abby": 5251,
      "grisham": 5252,
      "lfill": 5253,
      "fulfill": 5254,
      "ela": 5255,
      "rena": 5256,
      "merced": 5257,
      "breaks": 5258,
      "arizon": 5259,
      "satis": 5260,
      "maiden": 5261,
      "rupt": 5262,
      "motivated": 5263,
      "mercedes": 5264,
      "arizona": 5265,
      "ug": 5266,
      "valley": 5267,
      "returned": 5268,
      "ality": 5269,
      "album": 5270,
      "wears": 5271,
      "gospe": 5272,
      "everest": 5273,
      "morty": 5274,
      "monitor": 5275,
      "sitcoms": 5276,
      "clubbing": 5277,
      "hitting": 5278,
      "cheesy": 5279,
      "cheetahs": 5280,
      "welfare": 5281,
      "ymca": 5282,
      "episode": 5283,
      "jamaica": 5284,
      "gospel": 5285,
      "fold": 5286,
      "jake": 5287,
      "ka": 5288,
      "mates": 5289,
      "ara": 5290,
      "arri": 5291,
      "editor": 5292,
      "accom": 5293,
      "hometown": 5294,
      "stomach": 5295,
      "whos": 5296,
      "mermaids": 5297,
      "truly": 5298,
      "10th": 5299,
      "pastime": 5300,
      "harvey": 5301,
      "texting": 5302,
      "attended": 5303,
      "involve": 5304,
      "gigs": 5305,
      "millionaire": 5306,
      "including": 5307,
      "approve": 5308,
      "battlestar": 5309,
      "bag": 5310,
      "ole": 5311,
      "santa": 5312,
      "oring": 5313,
      "haz": 5314,
      "istics": 5315,
      "gues": 5316,
      "gran": 5317,
      "express": 5318,
      "purpose": 5319,
      "cycle": 5320,
      "skier": 5321,
      "airplane": 5322,
      "martin": 5323,
      "bonjour": 5324,
      "swing": 5325,
      "smoothie": 5326,
      "soldier": 5327,
      "demanding": 5328,
      "1st": 5329,
      "2pac": 5330,
      "ava": 5331,
      "arre": 5332,
      "noah": 5333,
      "funeral": 5334,
      "babysitting": 5335,
      "distri": 5336,
      "clutter": 5337,
      "44": 5338,
      "flex": 5339,
      "amoun": 5340,
      "edged": 5341,
      "preschool": 5342,
      "happily": 5343,
      "useful": 5344,
      "guitars": 5345,
      "management": 5346,
      "regularly": 5347,
      "nasa": 5348,
      "suffer": 5349,
      "capp": 5350,
      "hp": 5351,
      "hehe": 5352,
      "cope": 5353,
      "goodwill": 5354,
      "acking": 5355,
      "spi": 5356,
      "boiled": 5357,
      "erson": 5358,
      "popp": 5359,
      "afterwards": 5360,
      "ariel": 5361,
      "karma": 5362,
      "zookeeper": 5363,
      "variety": 5364,
      "situations": 5365,
      "uccino": 5366,
      "article": 5367,
      "daniels": 5368,
      "cappuccino": 5369,
      "attic": 5370,
      "ories": 5371,
      "stup": 5372,
      "ambit": 5373,
      "leela": 5374,
      "fridays": 5375,
      "agno": 5376,
      "curious": 5377,
      "fibromyalgia": 5378,
      "hygi": 5379,
      "travell": 5380,
      "figures": 5381,
      "miley": 5382,
      "challeng": 5383,
      "posse": 5384,
      "stupid": 5385,
      "hygien": 5386,
      "aven": 5387,
      "gust": 5388,
      "imm": 5389,
      "tup": 5390,
      "uma": 5391,
      "tony": 5392,
      "hairdresser": 5393,
      "anced": 5394,
      "turning": 5395,
      "austen": 5396,
      "porsche": 5397,
      "titanic": 5398,
      "sneak": 5399,
      "elder": 5400,
      "janitor": 5401,
      "tupac": 5402,
      "ased": 5403,
      "bite": 5404,
      "cing": 5405,
      "memb": 5406,
      "formal": 5407,
      "depression": 5408,
      "homeschooled": 5409,
      "dip": 5410,
      "combat": 5411,
      "syrup": 5412,
      "cares": 5413,
      "moves": 5414,
      "chanel": 5415,
      "figured": 5416,
      "confident": 5417,
      "explorer": 5418,
      "recycling": 5419,
      "barbies": 5420,
      "pharmacist": 5421,
      "members": 5422,
      "amy": 5423,
      "mma": 5424,
      "push": 5425,
      "worm": 5426,
      "notice": 5427,
      "whether": 5428,
      "marines": 5429,
      "ilable": 5430,
      "price": 5431,
      "hearing": 5432,
      "niag": 5433,
      "produce": 5434,
      "issue": 5435,
      "memories": 5436,
      "surprised": 5437,
      "1984": 5438,
      "available": 5439,
      "kra": 5440,
      "mr": 5441,
      "sword": 5442,
      "wished": 5443,
      "algeria": 5444,
      "aspire": 5445,
      "force": 5446,
      "yelling": 5447,
      "pills": 5448,
      "clay": 5449,
      "cursive": 5450,
      "surfer": 5451,
      "rico": 5452,
      "vore": 5453,
      "mature": 5454,
      "packs": 5455,
      "fluffy": 5456,
      "blogger": 5457,
      "bummed": 5458,
      "grassho": 5459,
      "minimum": 5460,
      "packages": 5461,
      "dedic": 5462,
      "pedias": 5463,
      "encyclopedias": 5464,
      "wealthy": 5465,
      "challenge": 5466,
      "ebooks": 5467,
      "nam": 5468,
      "thus": 5469,
      "stream": 5470,
      "keto": 5471,
      "tide": 5472,
      "tiki": 5473,
      "spice": 5474,
      "award": 5475,
      "wheres": 5476,
      "tap": 5477,
      "sipping": 5478,
      "cuse": 5479,
      "sage": 5480,
      "gency": 5481,
      "socialize": 5482,
      "involves": 5483,
      "anxious": 5484,
      "cardig": 5485,
      "naps": 5486,
      "olympic": 5487,
      "lamp": 5488,
      "emergency": 5489,
      "saxo": 5490,
      "administration": 5491,
      "spl": 5492,
      "chor": 5493,
      "mobi": 5494,
      "muscles": 5495,
      "prejud": 5496,
      "parlor": 5497,
      "bados": 5498,
      "barbados": 5499,
      "communist": 5500,
      "flops": 5501,
      "hippo": 5502,
      "consult": 5503,
      "frosting": 5504,
      "transit": 5505,
      "frequently": 5506,
      "accompl": 5507,
      "prejudice": 5508,
      "86": 5509,
      "fis": 5510,
      "hears": 5511,
      "tood": 5512,
      "excl": 5513,
      "raptors": 5514,
      "standards": 5515,
      "calming": 5516,
      "basket": 5517,
      "cyrus": 5518,
      "mission": 5519,
      "portra": 5520,
      "leroy": 5521,
      "suburban": 5522,
      "wrestle": 5523,
      "improve": 5524,
      "barefoot": 5525,
      "landscapes": 5526,
      "cs": 5527,
      "thumb": 5528,
      "vere": 5529,
      "onic": 5530,
      "sep": 5531,
      "hiding": 5532,
      "ately": 5533,
      "bows": 5534,
      "pipe": 5535,
      "cheaper": 5536,
      "veland": 5537,
      "loose": 5538,
      "mmmm": 5539,
      "brew": 5540,
      "recru": 5541,
      "cleveland": 5542,
      "keyboard": 5543,
      "chased": 5544,
      "ankle": 5545,
      "empire": 5546,
      "oreos": 5547,
      "jerky": 5548,
      "scrub": 5549,
      "pantry": 5550,
      "subtitles": 5551,
      "tas": 5552,
      "wag": 5553,
      "hamp": 5554,
      "felt": 5555,
      "nurses": 5556,
      "expert": 5557,
      "crafting": 5558,
      "unicorns": 5559,
      "coors": 5560,
      "f150": 5561,
      "gall": 5562,
      "md": 5563,
      "waff": 5564,
      "yl": 5565,
      "tone": 5566,
      "beta": 5567,
      "weir": 5568,
      "admit": 5569,
      "ploring": 5570,
      "deling": 5571,
      "reddit": 5572,
      "exploring": 5573,
      "pow": 5574,
      "talked": 5575,
      "closed": 5576,
      "maddie": 5577,
      "worlds": 5578,
      "picking": 5579,
      "boxers": 5580,
      "50k": 5581,
      "humans": 5582,
      "breeds": 5583,
      "meditate": 5584,
      "patients": 5585,
      "diabetes": 5586,
      "announcer": 5587,
      "scuba": 5588,
      "introduced": 5589,
      "hazel": 5590,
      "waffles": 5591,
      "citi": 5592,
      "link": 5593,
      "xbox": 5594,
      "rode": 5595,
      "admi": 5596,
      "coco": 5597,
      "biz": 5598,
      "consci": 5599,
      "sonian": 5600,
      "impress": 5601,
      "sixth": 5602,
      "shire": 5603,
      "celebration": 5604,
      "patience": 5605,
      "central": 5606,
      "smithsonian": 5607,
      "shades": 5608,
      "hampshire": 5609,
      "conscious": 5610,
      "53": 5611,
      "cities": 5612,
      "dic": 5613,
      "dash": 5614,
      "gary": 5615,
      "resu": 5616,
      "reviews": 5617,
      "lions": 5618,
      "aries": 5619,
      "eran": 5620,
      "haul": 5621,
      "whist": 5622,
      "ching": 5623,
      "spider": 5624,
      "schooling": 5625,
      "tales": 5626,
      "lesson": 5627,
      "outdoorsy": 5628,
      "chai": 5629,
      "dieting": 5630,
      "harsh": 5631,
      "kitties": 5632,
      "tician": 5633,
      "seashells": 5634,
      "slack": 5635,
      "nickel": 5636,
      "ears": 5637,
      "info": 5638,
      "selves": 5639,
      "leon": 5640,
      "timber": 5641,
      "shakes": 5642,
      "flat": 5643,
      "killer": 5644,
      "grilling": 5645,
      "strawberry": 5646,
      "introvert": 5647,
      "meditation": 5648,
      "issance": 5649,
      "scouts": 5650,
      "june": 5651,
      "apologize": 5652,
      "pediatrician": 5653,
      "liberal": 5654,
      "renaissance": 5655,
      "bey": 5656,
      "bets": 5657,
      "outfit": 5658,
      "access": 5659,
      "jogging": 5660,
      "blah": 5661,
      "gray": 5662,
      "trails": 5663,
      "trauma": 5664,
      "bran": 5665,
      "gardens": 5666,
      "emmy": 5667,
      "dorms": 5668,
      "development": 5669,
      "gables": 5670,
      "panic": 5671,
      "tam": 5672,
      "stain": 5673,
      "hamil": 5674,
      "severe": 5675,
      "irish": 5676,
      "wishing": 5677,
      "painful": 5678,
      "relaxed": 5679,
      "duck": 5680,
      "graduation": 5681,
      "handic": 5682,
      "tasting": 5683,
      "cupcake": 5684,
      "fairly": 5685,
      "depend": 5686,
      "celebrated": 5687,
      "culture": 5688,
      "honeymoon": 5689,
      "obsession": 5690,
      "reporter": 5691,
      "sprite": 5692,
      "hamilton": 5693,
      "dressed": 5694,
      "doin": 5695,
      "orche": 5696,
      "hay": 5697,
      "urous": 5698,
      "depot": 5699,
      "donuts": 5700,
      "wayne": 5701,
      "exist": 5702,
      "backstreet": 5703,
      "hopeless": 5704,
      "mortician": 5705,
      "freedom": 5706,
      "viol": 5707,
      "content": 5708,
      "adventurous": 5709,
      "galact": 5710,
      "patterns": 5711,
      "whittling": 5712,
      "compost": 5713,
      "saxophone": 5714,
      "econ": 5715,
      "gher": 5716,
      "yor": 5717,
      "youth": 5718,
      "holic": 5719,
      "stare": 5720,
      "onions": 5721,
      "oooh": 5722,
      "beck": 5723,
      "tember": 5724,
      "somebody": 5725,
      "celt": 5726,
      "excuse": 5727,
      "convin": 5728,
      "owners": 5729,
      "juggl": 5730,
      "custom": 5731,
      "birthdays": 5732,
      "nationals": 5733,
      "patrol": 5734,
      "koi": 5735,
      "cosmet": 5736,
      "olympics": 5737,
      "cheerleader": 5738,
      "modern": 5739,
      "chubby": 5740,
      "september": 5741,
      "btw": 5742,
      "ebook": 5743,
      "hist": 5744,
      "pics": 5745,
      "sic": 5746,
      "tack": 5747,
      "via": 5748,
      "ingred": 5749,
      "ontar": 5750,
      "hiked": 5751,
      "buds": 5752,
      "idence": 5753,
      "faith": 5754,
      "offer": 5755,
      "counter": 5756,
      "deadbeat": 5757,
      "victorian": 5758,
      "lenses": 5759,
      "fifth": 5760,
      "buddhist": 5761,
      "surrounded": 5762,
      "democrat": 5763,
      "immi": 5764,
      "ontario": 5765,
      "600": 5766,
      "911": 5767,
      "bones": 5768,
      "jac": 5769,
      "karen": 5770,
      "pn": 5771,
      "alpha": 5772,
      "semi": 5773,
      "teal": 5774,
      "typic": 5775,
      "zzy": 5776,
      "compared": 5777,
      "mermaid": 5778,
      "curator": 5779,
      "choices": 5780,
      "figur": 5781,
      "chains": 5782,
      "subscri": 5783,
      "balanced": 5784,
      "telecom": 5785,
      "century": 5786,
      "autobiographies": 5787,
      "cryst": 5788,
      "browsing": 5789,
      "rpg": 5790,
      "stairs": 5791,
      "typically": 5792,
      "airl": 5793,
      "oak": 5794,
      "iter": 5795,
      "lip": 5796,
      "adv": 5797,
      "suv": 5798,
      "sheeran": 5799,
      "promotion": 5800,
      "classics": 5801,
      "happiness": 5802,
      "luis": 5803,
      "bitcoin": 5804,
      "fallout": 5805,
      "statement": 5806,
      "tending": 5807,
      "radiohead": 5808,
      "joining": 5809,
      "lovers": 5810,
      "pageants": 5811,
      "weapons": 5812,
      "glaciers": 5813,
      "ew": 5814,
      "ffa": 5815,
      "fra": 5816,
      "kpop": 5817,
      "stren": 5818,
      "hill": 5819,
      "buffa": 5820,
      "advis": 5821,
      "grunge": 5822,
      "rule": 5823,
      "concentr": 5824,
      "sigh": 5825,
      "diagno": 5826,
      "drivers": 5827,
      "comb": 5828,
      "mineers": 5829,
      "lumineers": 5830,
      "descri": 5831,
      "triath": 5832,
      "cras": 5833,
      "austri": 5834,
      "switch": 5835,
      "carrying": 5836,
      "obsess": 5837,
      "survivor": 5838,
      "argentina": 5839,
      "travelled": 5840,
      "buffalo": 5841,
      "diagnosed": 5842,
      "dumb": 5843,
      "ille": 5844,
      "pine": 5845,
      "rats": 5846,
      "ining": 5847,
      "resto": 5848,
      "ono": 5849,
      "spill": 5850,
      "blan": 5851,
      "petition": 5852,
      "cused": 5853,
      "fted": 5854,
      "meats": 5855,
      "jeans": 5856,
      "difference": 5857,
      "roof": 5858,
      "pinky": 5859,
      "opening": 5860,
      "sheltered": 5861,
      "impressed": 5862,
      "attracted": 5863,
      "barbeque": 5864,
      "filled": 5865,
      "commitment": 5866,
      "sweaters": 5867,
      "dolphins": 5868,
      "vitamin": 5869,
      "challenging": 5870,
      "bang": 5871,
      "jan": 5872,
      "jars": 5873,
      "vs": 5874,
      "vill": 5875,
      "ays": 5876,
      "sol": 5877,
      "seed": 5878,
      "roy": 5879,
      "covers": 5880,
      "necess": 5881,
      "tefis": 5882,
      "nighttime": 5883,
      "actual": 5884,
      "quality": 5885,
      "lutefis": 5886,
      "watercolors": 5887,
      "tattooed": 5888,
      "snakeskin": 5889,
      "spirited": 5890,
      "wildlife": 5891,
      "messed": 5892,
      "seasons": 5893,
      "lifted": 5894,
      "frustrated": 5895,
      "lutefisk": 5896,
      "42": 5897,
      "cart": 5898,
      "gate": 5899,
      "ibly": 5900,
      "stops": 5901,
      "council": 5902,
      "sunfish": 5903,
      "dull": 5904,
      "camper": 5905,
      "absolute": 5906,
      "planting": 5907,
      "inspire": 5908,
      "loads": 5909,
      "incredibly": 5910,
      "companies": 5911,
      "amount": 5912,
      "streng": 5913,
      "ax": 5914,
      "omar": 5915,
      "vro": 5916,
      "inher": 5917,
      "iser": 5918,
      "amate": 5919,
      "webs": 5920,
      "kings": 5921,
      "playoff": 5922,
      "dece": 5923,
      "chevro": 5924,
      "diam": 5925,
      "backwards": 5926,
      "quet": 5927,
      "happier": 5928,
      "given": 5929,
      "menu": 5930,
      "intern": 5931,
      "butterfly": 5932,
      "beagles": 5933,
      "publishers": 5934,
      "citizen": 5935,
      "admire": 5936,
      "amateur": 5937,
      "chevrolet": 5938,
      "386": 5939,
      "bent": 5940,
      "cass": 5941,
      "dab": 5942,
      "kni": 5943,
      "sket": 5944,
      "incomplete": 5945,
      "relief": 5946,
      "hook": 5947,
      "widow": 5948,
      "coon": 5949,
      "tight": 5950,
      "anytime": 5951,
      "timeshare": 5952,
      "ishing": 5953,
      "musicals": 5954,
      "contest": 5955,
      "carn": 5956,
      "agit": 5957,
      "hotdogs": 5958,
      "dden": 5959,
      "matters": 5960,
      "gged": 5961,
      "hitch": 5962,
      "chillin": 5963,
      "dollar": 5964,
      "shorts": 5965,
      "grave": 5966,
      "guru": 5967,
      "pursuing": 5968,
      "waste": 5969,
      "analyst": 5970,
      "bentley": 5971,
      "knife": 5972,
      "dama": 5973,
      "fle": 5974,
      "indoors": 5975,
      "noise": 5976,
      "wii": 5977,
      "ades": 5978,
      "goodfell": 5979,
      "fuse": 5980,
      "willing": 5981,
      "focused": 5982,
      "umn": 5983,
      "horrid": 5984,
      "hurry": 5985,
      "dealer": 5986,
      "radiology": 5987,
      "tarot": 5988,
      "culinary": 5989,
      "auditioned": 5990,
      "taxes": 5991,
      "rejected": 5992,
      "eighteen": 5993,
      "elderly": 5994,
      "cardigans": 5995,
      "damage": 5996,
      "goodfellas": 5997,
      "80": 5998,
      "mou": 5999,
      "rated": 6000,
      "sally": 6001,
      "inker": 6002,
      "liking": 6003,
      "provide": 6004,
      "merna": 6005,
      "letter": 6006,
      "hoop": 6007,
      "pitbull": 6008,
      "phia": 6009,
      "simply": 6010,
      "batman": 6011,
      "battery": 6012,
      "sociable": 6013,
      "considering": 6014,
      "terrier": 6015,
      "medication": 6016,
      "suburb": 6017,
      "ipment": 6018,
      "retrievers": 6019,
      "confidence": 6020,
      "equipment": 6021,
      "pursue": 6022,
      "kicked": 6023,
      "niagra": 6024,
      "orchestra": 6025,
      "juggler": 6026,
      "fus": 6027,
      "rab": 6028,
      "indoor": 6029,
      "rejects": 6030,
      "nomad": 6031,
      "amus": 6032,
      "urt": 6033,
      "cheated": 6034,
      "illino": 6035,
      "whom": 6036,
      "truth": 6037,
      "sav": 6038,
      "served": 6039,
      "international": 6040,
      "stylist": 6041,
      "2016": 6042,
      "polar": 6043,
      "teleno": 6044,
      "butterflies": 6045,
      "scenes": 6046,
      "antiques": 6047,
      "record": 6048,
      "crosswords": 6049,
      "ferret": 6050,
      "krav": 6051,
      "illegal": 6052,
      "illinois": 6053,
      "telenovel": 6054,
      "500": 6055,
      "vanc": 6056,
      "ouver": 6057,
      "reje": 6058,
      "retro": 6059,
      "guitarist": 6060,
      "wednes": 6061,
      "sevenfold": 6062,
      "coasters": 6063,
      "springfield": 6064,
      "superheroes": 6065,
      "protect": 6066,
      "entertaining": 6067,
      "employee": 6068,
      "affected": 6069,
      "avenged": 6070,
      "bizarre": 6071,
      "galactica": 6072,
      "austria": 6073,
      "telenovela": 6074,
      "vancouver": 6075,
      "bc": 6076,
      "olive": 6077,
      "eria": 6078,
      "seat": 6079,
      "hills": 6080,
      "groo": 6081,
      "sig": 6082,
      "supermarket": 6083,
      "genji": 6084,
      "ctions": 6085,
      "version": 6086,
      "potamus": 6087,
      "pastor": 6088,
      "posts": 6089,
      "jenkins": 6090,
      "welding": 6091,
      "hippopotamus": 6092,
      "whistle": 6093,
      "becky": 6094,
      "crap": 6095,
      "oon": 6096,
      "uit": 6097,
      "orn": 6098,
      "licon": 6099,
      "uphol": 6100,
      "spin": 6101,
      "silicon": 6102,
      "clue": 6103,
      "farts": 6104,
      "housewife": 6105,
      "penny": 6106,
      "discount": 6107,
      "heads": 6108,
      "tats": 6109,
      "charge": 6110,
      "starts": 6111,
      "setting": 6112,
      "woodstock": 6113,
      "bene": 6114,
      "laying": 6115,
      "reenact": 6116,
      "welder": 6117,
      "injury": 6118,
      "escaped": 6119,
      "website": 6120,
      "upholster": 6121,
      "cay": 6122,
      "cast": 6123,
      "iards": 6124,
      "pound": 6125,
      "ena": 6126,
      "ening": 6127,
      "bel": 6128,
      "rolls": 6129,
      "coba": 6130,
      "union": 6131,
      "poem": 6132,
      "oldies": 6133,
      "finds": 6134,
      "combo": 6135,
      "husbands": 6136,
      "igno": 6137,
      "sterling": 6138,
      "corky": 6139,
      "128": 6140,
      "generation": 6141,
      "title": 6142,
      "billiards": 6143,
      "paperwork": 6144,
      "comfort": 6145,
      "academy": 6146,
      "lipstick": 6147,
      "cobain": 6148,
      "bff": 6149,
      "icul": 6150,
      "weigh": 6151,
      "unders": 6152,
      "sue": 6153,
      "bomb": 6154,
      "dreamworks": 6155,
      "leased": 6156,
      "rainbows": 6157,
      "sandy": 6158,
      "queens": 6159,
      "aaaa": 6160,
      "patient": 6161,
      "pageant": 6162,
      "companion": 6163,
      "nanette": 6164,
      "beadwork": 6165,
      "nickelback": 6166,
      "400": 6167,
      "hrs": 6168,
      "thirty": 6169,
      "atleast": 6170,
      "limit": 6171,
      "areas": 6172,
      "colon": 6173,
      "ershop": 6174,
      "boomer": 6175,
      "umm": 6176,
      "puts": 6177,
      "window": 6178,
      "disorder": 6179,
      "apps": 6180,
      "minor": 6181,
      "cousin": 6182,
      "marketer": 6183,
      "markets": 6184,
      "license": 6185,
      "obli": 6186,
      "bankrupt": 6187,
      "legends": 6188,
      "crum": 6189,
      "sara": 6190,
      "example": 6191,
      "jenny": 6192,
      "barbershop": 6193,
      "clarinet": 6194,
      "consultant": 6195,
      "cosmetics": 6196,
      "upholstery": 6197,
      "izing": 6198,
      "jar": 6199,
      "slice": 6200,
      "ux": 6201,
      "zation": 6202,
      "erts": 6203,
      "andro": 6204,
      "begin": 6205,
      "alas": 6206,
      "acres": 6207,
      "ravi": 6208,
      "gear": 6209,
      "fulle": 6210,
      "pires": 6211,
      "foren": 6212,
      "thankful": 6213,
      "highlights": 6214,
      "discus": 6215,
      "fathers": 6216,
      "shake": 6217,
      "activis": 6218,
      "chronic": 6219,
      "sharing": 6220,
      "desserts": 6221,
      "fifteen": 6222,
      "vampires": 6223,
      "surprise": 6224,
      "oyu": 6225,
      "sculp": 6226,
      "arabia": 6227,
      "daisies": 6228,
      "geocache": 6229,
      "pillaging": 6230,
      "poppin": 6231,
      "transition": 6232,
      "ravioli": 6233,
      "fullest": 6234,
      "70s": 6235,
      "binder": 6236,
      "iz": 6237,
      "realize": 6238,
      "hob": 6239,
      "enthus": 6240,
      "copy": 6241,
      "grees": 6242,
      "canning": 6243,
      "checker": 6244,
      "mental": 6245,
      "percy": 6246,
      "summers": 6247,
      "medal": 6248,
      "retires": 6249,
      "dreamed": 6250,
      "supports": 6251,
      "costume": 6252,
      "distribu": 6253,
      "hygienist": 6254,
      "handicapp": 6255,
      "strength": 6256,
      "enthusi": 6257,
      "4000": 6258,
      "fts": 6259,
      "jay": 6260,
      "argu": 6261,
      "lock": 6262,
      "rylic": 6263,
      "coins": 6264,
      "acrylic": 6265,
      "butt": 6266,
      "butcher": 6267,
      "dev": 6268,
      "degr": 6269,
      "gotti": 6270,
      "tyson": 6271,
      "themselves": 6272,
      "elphia": 6273,
      "tape": 6274,
      "appear": 6275,
      "perio": 6276,
      "vegans": 6277,
      "grapher": 6278,
      "milo": 6279,
      "tedious": 6280,
      "ladelphia": 6281,
      "saved": 6282,
      "philadelphia": 6283,
      "autumn": 6284,
      "shark": 6285,
      "benef": 6286,
      "palm": 6287,
      "participate": 6288,
      "shepherds": 6289,
      "disappointed": 6290,
      "snaps": 6291,
      "pineapple": 6292,
      "agitated": 6293,
      "degrasse": 6294,
      "ered": 6295,
      "dope": 6296,
      "stirl": 6297,
      "sole": 6298,
      "gos": 6299,
      "outfits": 6300,
      "ramen": 6301,
      "upcoming": 6302,
      "urally": 6303,
      "bipolar": 6304,
      "william": 6305,
      "county": 6306,
      "nerves": 6307,
      "roofing": 6308,
      "naturally": 6309,
      "tune": 6310,
      "shall": 6311,
      "shelves": 6312,
      "danes": 6313,
      "grizz": 6314,
      "float": 6315,
      "vikings": 6316,
      "settled": 6317,
      "promise": 6318,
      "tuesday": 6319,
      "stirling": 6320,
      "90": 6321,
      "influ": 6322,
      "licat": 6323,
      "noticed": 6324,
      "unicycle": 6325,
      "neck": 6326,
      "urinary": 6327,
      "eless": 6328,
      "manning": 6329,
      "chemist": 6330,
      "backyard": 6331,
      "himself": 6332,
      "matt": 6333,
      "network": 6334,
      "dana": 6335,
      "priate": 6336,
      "windy": 6337,
      "cruz": 6338,
      "sartori": 6339,
      "musicians": 6340,
      "inspires": 6341,
      "entertainment": 6342,
      "appropriate": 6343,
      "jefferson": 6344,
      "technically": 6345,
      "celtics": 6346,
      "alphabet": 6347,
      "figurines": 6348,
      "sartorius": 6349,
      "file": 6350,
      "ivy": 6351,
      "kurt": 6352,
      "ologist": 6353,
      "wwii": 6354,
      "yr": 6355,
      "regre": 6356,
      "oops": 6357,
      "ener": 6358,
      "forgive": 6359,
      "spoo": 6360,
      "dong": 6361,
      "storage": 6362,
      "perks": 6363,
      "speaks": 6364,
      "winner": 6365,
      "treats": 6366,
      "productive": 6367,
      "captain": 6368,
      "assume": 6369,
      "assuming": 6370,
      "supportive": 6371,
      "document": 6372,
      "shepherd": 6373,
      "admirable": 6374,
      "fulfilling": 6375,
      "mobile": 6376,
      "diamond": 6377,
      "rejection": 6378,
      "jag": 6379,
      "plot": 6380,
      "llig": 6381,
      "tip": 6382,
      "preference": 6383,
      "intellig": 6384,
      "syrac": 6385,
      "clock": 6386,
      "alizing": 6387,
      "tuce": 6388,
      "grandsons": 6389,
      "lettuce": 6390,
      "string": 6391,
      "zebra": 6392,
      "weightlifter": 6393,
      "kites": 6394,
      "balance": 6395,
      "services": 6396,
      "graveyard": 6397,
      "syracuse": 6398,
      "juni": 6399,
      "nba": 6400,
      "pc": 6401,
      "sali": 6402,
      "uu": 6403,
      "peach": 6404,
      "cig": 6405,
      "siber": 6406,
      "hardcore": 6407,
      "trucker": 6408,
      "pure": 6409,
      "wage": 6410,
      "monkey": 6411,
      "phobi": 6412,
      "downtime": 6413,
      "empty": 6414,
      "buildings": 6415,
      "fields": 6416,
      "pitbulls": 6417,
      "henry": 6418,
      "racquet": 6419,
      "ators": 6420,
      "posting": 6421,
      "piercing": 6422,
      "convenient": 6423,
      "wizards": 6424,
      "statistics": 6425,
      "biscuit": 6426,
      "junior": 6427,
      "saliva": 6428,
      "vity": 6429,
      "reck": 6430,
      "vets": 6431,
      "arer": 6432,
      "bearer": 6433,
      "driven": 6434,
      "drafted": 6435,
      "breathe": 6436,
      "cleats": 6437,
      "vior": 6438,
      "autistic": 6439,
      "saudi": 6440,
      "hindu": 6441,
      "digital": 6442,
      "delivery": 6443,
      "melis": 6444,
      "wiccan": 6445,
      "corporate": 6446,
      "kward": 6447,
      "oven": 6448,
      "lest": 6449,
      "ached": 6450,
      "awkward": 6451,
      "cheat": 6452,
      "monsan": 6453,
      "stray": 6454,
      "throughout": 6455,
      "embar": 6456,
      "tailgate": 6457,
      "celebrities": 6458,
      "electrician": 6459,
      "arabic": 6460,
      "disappointing": 6461,
      "ugly": 6462,
      "granny": 6463,
      "monsanto": 6464,
      "dough": 6465,
      "nc": 6466,
      "report": 6467,
      "remodel": 6468,
      "stressing": 6469,
      "halen": 6470,
      "roast": 6471,
      "players": 6472,
      "playlist": 6473,
      "fined": 6474,
      "nerdy": 6475,
      "snacking": 6476,
      "starving": 6477,
      "sham": 6478,
      "candies": 6479,
      "praying": 6480,
      "greeting": 6481,
      "federal": 6482,
      "wizard": 6483,
      "impressions": 6484,
      "branch": 6485,
      "petitions": 6486,
      "lish": 6487,
      "rou": 6488,
      "refuse": 6489,
      "alfred": 6490,
      "anybody": 6491,
      "nightly": 6492,
      "borrow": 6493,
      "freaking": 6494,
      "shallow": 6495,
      "ggles": 6496,
      "millions": 6497,
      "swit": 6498,
      "developer": 6499,
      "signed": 6500,
      "signific": 6501,
      "trailer": 6502,
      "olympian": 6503,
      "linux": 6504,
      "murals": 6505,
      "bottle": 6506,
      "stains": 6507,
      "immigrated": 6508,
      "understood": 6509,
      "activism": 6510,
      "intelligent": 6511,
      "siberian": 6512,
      "melissa": 6513,
      "27": 6514,
      "cise": 6515,
      "jet": 6516,
      "lance": 6517,
      "linking": 6518,
      "yton": 6519,
      "arrange": 6520,
      "weren": 6521,
      "bucket": 6522,
      "unsure": 6523,
      "abroad": 6524,
      "josh": 6525,
      "peyton": 6526,
      "woah": 6527,
      "dew": 6528,
      "direct": 6529,
      "speci": 6530,
      "stews": 6531,
      "stuffed": 6532,
      "pitt": 6533,
      "humble": 6534,
      "motivation": 6535,
      "chorus": 6536,
      "shortstop": 6537,
      "46": 6538,
      "bers": 6539,
      "clist": 6540,
      "hr": 6541,
      "ients": 6542,
      "stage": 6543,
      "beha": 6544,
      "sees": 6545,
      "wet": 6546,
      "itement": 6547,
      "washers": 6548,
      "newly": 6549,
      "sim": 6550,
      "betting": 6551,
      "meetings": 6552,
      "excitement": 6553,
      "frenzy": 6554,
      "pressure": 6555,
      "flicks": 6556,
      "harvest": 6557,
      "lightning": 6558,
      "pups": 6559,
      "veterinary": 6560,
      "teenager": 6561,
      "organizing": 6562,
      "fying": 6563,
      "transport": 6564,
      "emotions": 6565,
      "trooper": 6566,
      "breeze": 6567,
      "portraits": 6568,
      "ingredients": 6569,
      "mouth": 6570,
      "cayden": 6571,
      "forensic": 6572,
      "significant": 6573,
      "4am": 6574,
      "8th": 6575,
      "dun": 6576,
      "dles": 6577,
      "nv": 6578,
      "pam": 6579,
      "slight": 6580,
      "vnv": 6581,
      "haw": 6582,
      "solar": 6583,
      "neil": 6584,
      "sucker": 6585,
      "showing": 6586,
      "badly": 6587,
      "pizzas": 6588,
      "landlord": 6589,
      "aint": 6590,
      "grows": 6591,
      "cyclist": 6592,
      "pianist": 6593,
      "darts": 6594,
      "designed": 6595,
      "message": 6596,
      "fifty": 6597,
      "survived": 6598,
      "troop": 6599,
      "carnivore": 6600,
      "leprechauns": 6601,
      "monitors": 6602,
      "combination": 6603,
      "restored": 6604,
      "savage": 6605,
      "rouge": 6606,
      "bay": 6607,
      "fian": 6608,
      "mani": 6609,
      "wy": 6610,
      "independ": 6611,
      "ata": 6612,
      "lemon": 6613,
      "complet": 6614,
      "cuba": 6615,
      "specially": 6616,
      "brewing": 6617,
      "tallest": 6618,
      "ergono": 6619,
      "tatoo": 6620,
      "dances": 6621,
      "mild": 6622,
      "smoked": 6623,
      "designs": 6624,
      "thorns": 6625,
      "garfield": 6626,
      "batch": 6627,
      "brah": 6628,
      "medications": 6629,
      "collar": 6630,
      "athletes": 6631,
      "squats": 6632,
      "storms": 6633,
      "regis": 6634,
      "reply": 6635,
      "arrive": 6636,
      "hobbie": 6637,
      "benefits": 6638,
      "completed": 6639,
      "ergonomic": 6640,
      "fet": 6641,
      "gie": 6642,
      "penders": 6643,
      "refused": 6644,
      "code": 6645,
      "cops": 6646,
      "ably": 6647,
      "joking": 6648,
      "colorblind": 6649,
      "videogames": 6650,
      "aughter": 6651,
      "applying": 6652,
      "letting": 6653,
      "dreaming": 6654,
      "clueless": 6655,
      "teams": 6656,
      "suspenders": 6657,
      "brag": 6658,
      "researching": 6659,
      "coworkers": 6660,
      "flexible": 6661,
      "linkin": 6662,
      "slackware": 6663,
      "yorker": 6664,
      "oakville": 6665,
      "oblig": 6666,
      "49": 6667,
      "cci": 6668,
      "chad": 6669,
      "lons": 6670,
      "mun": 6671,
      "paw": 6672,
      "inha": 6673,
      "atmo": 6674,
      "ory": 6675,
      "bec": 6676,
      "icks": 6677,
      "rains": 6678,
      "getic": 6679,
      "sphere": 6680,
      "gucci": 6681,
      "pete": 6682,
      "alized": 6683,
      "trou": 6684,
      "sitter": 6685,
      "earned": 6686,
      "boarding": 6687,
      "hospitals": 6688,
      "photographs": 6689,
      "writes": 6690,
      "hooked": 6691,
      "prints": 6692,
      "winding": 6693,
      "brave": 6694,
      "chilli": 6695,
      "forgetful": 6696,
      "massage": 6697,
      "crowded": 6698,
      "knock": 6699,
      "triathlons": 6700,
      "grizzlies": 6701,
      "energetic": 6702,
      "atmosphere": 6703,
      "345": 6704,
      "gassy": 6705,
      "thier": 6706,
      "reput": 6707,
      "refur": 6708,
      "antha": 6709,
      "isai": 6710,
      "holy": 6711,
      "seme": 6712,
      "mohic": 6713,
      "audio": 6714,
      "aste": 6715,
      "pots": 6716,
      "shopper": 6717,
      "purchase": 6718,
      "meaning": 6719,
      "dane": 6720,
      "celebrating": 6721,
      "samantha": 6722,
      "baton": 6723,
      "cabins": 6724,
      "beetles": 6725,
      "christie": 6726,
      "tomato": 6727,
      "gifts": 6728,
      "princeton": 6729,
      "depressing": 6730,
      "thriller": 6731,
      "spiky": 6732,
      "beyond": 6733,
      "dabble": 6734,
      "wednesday": 6735,
      "behavior": 6736,
      "refurb": 6737,
      "isaiah": 6738,
      "mohicans": 6739,
      "kiss": 6740,
      "mare": 6741,
      "mace": 6742,
      "nis": 6743,
      "tops": 6744,
      "ordered": 6745,
      "outgoing": 6746,
      "fail": 6747,
      "plastic": 6748,
      "teras": 6749,
      "mangoes": 6750,
      "paran": 6751,
      "foreclosed": 6752,
      "sweetie": 6753,
      "hipster": 6754,
      "utical": 6755,
      "roadie": 6756,
      "vinyl": 6757,
      "organize": 6758,
      "hatteras": 6759,
      "distract": 6760,
      "pharmace": 6761,
      "communication": 6762,
      "disappointment": 6763,
      "rita": 6764,
      "hayworth": 6765,
      "village": 6766,
      "pharmaceutical": 6767,
      "iphones": 6768,
      "inches": 6769,
      "thouse": 6770,
      "meter": 6771,
      "erable": 6772,
      "loans": 6773,
      "higher": 6774,
      "cod": 6775,
      "dean": 6776,
      "iff": 6777,
      "surely": 6778,
      "loosing": 6779,
      "cookbooks": 6780,
      "skirt": 6781,
      "disability": 6782,
      "miserable": 6783,
      "charities": 6784,
      "danced": 6785,
      "shade": 6786,
      "loner": 6787,
      "streets": 6788,
      "labs": 6789,
      "koala": 6790,
      "fascinated": 6791,
      "snee": 6792,
      "stinky": 6793,
      "geek": 6794,
      "racquetball": 6795,
      "36": 6796,
      "71": 6797,
      "aholic": 6798,
      "boun": 6799,
      "fb": 6800,
      "ira": 6801,
      "jacks": 6802,
      "outlet": 6803,
      "ceo": 6804,
      "ifer": 6805,
      "shells": 6806,
      "finances": 6807,
      "showers": 6808,
      "torical": 6809,
      "bookworm": 6810,
      "historical": 6811,
      "vocal": 6812,
      "causes": 6813,
      "chain": 6814,
      "workers": 6815,
      "beside": 6816,
      "2004": 6817,
      "scenery": 6818,
      "physic": 6819,
      "financially": 6820,
      "soothing": 6821,
      "appliance": 6822,
      "alike": 6823,
      "dine": 6824,
      "dated": 6825,
      "pits": 6826,
      "u2": 6827,
      "rein": 6828,
      "domin": 6829,
      "orders": 6830,
      "wier": 6831,
      "mokers": 6832,
      "upon": 6833,
      "herself": 6834,
      "proced": 6835,
      "puffs": 6836,
      "visits": 6837,
      "stein": 6838,
      "secondary": 6839,
      "workouts": 6840,
      "hostage": 6841,
      "troy": 6842,
      "ridicul": 6843,
      "islands": 6844,
      "taxi": 6845,
      "respond": 6846,
      "competitively": 6847,
      "sexy": 6848,
      "sparks": 6849,
      "opportunity": 6850,
      "chainsmokers": 6851,
      "distributor": 6852,
      "ridiculous": 6853,
      "ease": 6854,
      "ome": 6855,
      "ppl": 6856,
      "pts": 6857,
      "robb": 6858,
      "pler": 6859,
      "cane": 6860,
      "wassup": 6861,
      "resting": 6862,
      "confined": 6863,
      "males": 6864,
      "propo": 6865,
      "supple": 6866,
      "evenings": 6867,
      "sunflowers": 6868,
      "calms": 6869,
      "understanding": 6870,
      "mbat": 6871,
      "addition": 6872,
      "ponder": 6873,
      "grilled": 6874,
      "oddly": 6875,
      "kombat": 6876,
      "spoiled": 6877,
      "inspiring": 6878,
      "slac": 6879,
      "baldness": 6880,
      "servative": 6881,
      "simpler": 6882,
      "inhaler": 6883,
      "fought": 6884,
      "mard": 6885,
      "mama": 6886,
      "yall": 6887,
      "inqu": 6888,
      "reat": 6889,
      "represent": 6890,
      "ante": 6891,
      "meds": 6892,
      "armp": 6893,
      "habits": 6894,
      "unlike": 6895,
      "faked": 6896,
      "joint": 6897,
      "americ": 6898,
      "ional": 6899,
      "nightmare": 6900,
      "stocks": 6901,
      "inton": 6902,
      "careers": 6903,
      "monster": 6904,
      "tricks": 6905,
      "chores": 6906,
      "gain": 6907,
      "calories": 6908,
      "fanatic": 6909,
      "missou": 6910,
      "fashioned": 6911,
      "chairs": 6912,
      "lifetime": 6913,
      "contractor": 6914,
      "routine": 6915,
      "coordinator": 6916,
      "playoffs": 6917,
      "fto": 6918,
      "gies": 6919,
      "yrs": 6920,
      "zom": 6921,
      "toler": 6922,
      "dodge": 6923,
      "llen": 6924,
      "arrow": 6925,
      "forty": 6926,
      "lee": 6927,
      "lefto": 6928,
      "unable": 6929,
      "uss": 6930,
      "todays": 6931,
      "degrees": 6932,
      "gru": 6933,
      "knowing": 6934,
      "agath": 6935,
      "sporting": 6936,
      "umass": 6937,
      "chop": 6938,
      "preferred": 6939,
      "apply": 6940,
      "roofer": 6941,
      "tongue": 6942,
      "lingual": 6943,
      "fortune": 6944,
      "ledge": 6945,
      "heroes": 6946,
      "banking": 6947,
      "2000": 6948,
      "deeply": 6949,
      "committed": 6950,
      "documentaries": 6951,
      "zombie": 6952,
      "agatha": 6953,
      "fans": 6954,
      "nood": 6955,
      "od": 6956,
      "tab": 6957,
      "ued": 6958,
      "inst": 6959,
      "orlan": 6960,
      "beli": 6961,
      "maria": 6962,
      "cla": 6963,
      "classroom": 6964,
      "paino": 6965,
      "swear": 6966,
      "pencil": 6967,
      "purses": 6968,
      "magical": 6969,
      "cartographer": 6970,
      "budget": 6971,
      "circle": 6972,
      "thai": 6973,
      "answering": 6974,
      "spiritual": 6975,
      "repti": 6976,
      "fairytales": 6977,
      "tackles": 6978,
      "chemistry": 6979,
      "orlando": 6980,
      "4th": 6981,
      "thy": 6982,
      "itter": 6983,
      "lil": 6984,
      "hii": 6985,
      "rip": 6986,
      "worn": 6987,
      "abor": 6988,
      "terminal": 6989,
      "deals": 6990,
      "indi": 6991,
      "prest": 6992,
      "homebody": 6993,
      "shelf": 6994,
      "connor": 6995,
      "illustr": 6996,
      "passing": 6997,
      "freetime": 6998,
      "seventh": 6999,
      "bellied": 7000,
      "exams": 7001,
      "magazines": 7002,
      "babysitter": 7003,
      "daydreaming": 7004,
      "subscribers": 7005,
      "reputation": 7006,
      "dise": 7007,
      "dale": 7008,
      "ivity": 7009,
      "minton": 7010,
      "nies": 7011,
      "ovo": 7012,
      "sassy": 7013,
      "vard": 7014,
      "zi": 7015,
      "rehears": 7016,
      "began": 7017,
      "associ": 7018,
      "chy": 7019,
      "modo": 7020,
      "moments": 7021,
      "olds": 7022,
      "manly": 7023,
      "chet": 7024,
      "proposed": 7025,
      "colorful": 7026,
      "print": 7027,
      "appe": 7028,
      "badminton": 7029,
      "disgust": 7030,
      "barn": 7031,
      "flag": 7032,
      "midnight": 7033,
      "dealers": 7034,
      "secrets": 7035,
      "racer": 7036,
      "bunnies": 7037,
      "junkie": 7038,
      "focusing": 7039,
      "thrillers": 7040,
      "source": 7041,
      "ambitious": 7042,
      "believer": 7043,
      "individ": 7044,
      "smar": 7045,
      "return": 7046,
      "hom": 7047,
      "holas": 7048,
      "stun": 7049,
      "locker": 7050,
      "fort": 7051,
      "usive": 7052,
      "kidna": 7053,
      "expe": 7054,
      "chester": 7055,
      "quali": 7056,
      "drinker": 7057,
      "anges": 7058,
      "berg": 7059,
      "basic": 7060,
      "adoption": 7061,
      "cheeseburger": 7062,
      "hurting": 7063,
      "smelly": 7064,
      "nicholas": 7065,
      "mechanics": 7066,
      "explains": 7067,
      "exclusive": 7068,
      "gallery": 7069,
      "data": 7070,
      "mv": 7071,
      "witch": 7072,
      "inner": 7073,
      "refle": 7074,
      "theme": 7075,
      "arily": 7076,
      "lolli": 7077,
      "roles": 7078,
      "upper": 7079,
      "ruin": 7080,
      "cia": 7081,
      "carts": 7082,
      "paps": 7083,
      "comfy": 7084,
      "aka": 7085,
      "saves": 7086,
      "gae": 7087,
      "downhill": 7088,
      "bitcoins": 7089,
      "treas": 7090,
      "harm": 7091,
      "teapots": 7092,
      "shifts": 7093,
      "dropping": 7094,
      "distant": 7095,
      "product": 7096,
      "jackie": 7097,
      "prayer": 7098,
      "diesel": 7099,
      "developing": 7100,
      "shorter": 7101,
      "avoiding": 7102,
      "limits": 7103,
      "cabinet": 7104,
      "kicking": 7105,
      "1986": 7106,
      "prepared": 7107,
      "flirting": 7108,
      "volcanoes": 7109,
      "acrylics": 7110,
      "wierd": 7111,
      "bour": 7112,
      "cind": 7113,
      "nn": 7114,
      "enced": 7115,
      "nowhere": 7116,
      "newest": 7117,
      "debut": 7118,
      "herb": 7119,
      "manhat": 7120,
      "apers": 7121,
      "cuc": 7122,
      "carefree": 7123,
      "freight": 7124,
      "harvard": 7125,
      "prior": 7126,
      "cros": 7127,
      "pitch": 7128,
      "bowled": 7129,
      "telemarketer": 7130,
      "superheros": 7131,
      "eyed": 7132,
      "crabs": 7133,
      "labradors": 7134,
      "econom": 7135,
      "airline": 7136,
      "semester": 7137,
      "missouri": 7138,
      "cindy": 7139,
      "manhattan": 7140,
      "37": 7141,
      "cine": 7142,
      "gad": 7143,
      "ranc": 7144,
      "yu": 7145,
      "refer": 7146,
      "request": 7147,
      "recovery": 7148,
      "dows": 7149,
      "aret": 7150,
      "era": 7151,
      "sock": 7152,
      "adays": 7153,
      "tim": 7154,
      "tee": 7155,
      "cooper": 7156,
      "nowadays": 7157,
      "majo": 7158,
      "bros": 7159,
      "quilt": 7160,
      "hasn": 7161,
      "desire": 7162,
      "hangout": 7163,
      "rainbow": 7164,
      "picnic": 7165,
      "volunteers": 7166,
      "northern": 7167,
      "crack": 7168,
      "porch": 7169,
      "messing": 7170,
      "140": 7171,
      "squat": 7172,
      "square": 7173,
      "strictly": 7174,
      "electronics": 7175,
      "require": 7176,
      "geocaching": 7177,
      "handicapper": 7178,
      "cigaret": 7179,
      "ike": 7180,
      "nics": 7181,
      "oz": 7182,
      "punch": 7183,
      "ske": 7184,
      "thro": 7185,
      "megan": 7186,
      "lily": 7187,
      "aro": 7188,
      "leton": 7189,
      "ril": 7190,
      "tease": 7191,
      "boards": 7192,
      "shred": 7193,
      "knowledge": 7194,
      "paints": 7195,
      "curl": 7196,
      "berry": 7197,
      "hypo": 7198,
      "intment": 7199,
      "drug": 7200,
      "stretch": 7201,
      "distances": 7202,
      "brains": 7203,
      "wallet": 7204,
      "koalas": 7205,
      "appointment": 7206,
      "brunette": 7207,
      "remotely": 7208,
      "buddies": 7209,
      "communications": 7210,
      "delivered": 7211,
      "performan": 7212,
      "trend": 7213,
      "advise": 7214,
      "hitchhiking": 7215,
      "slightly": 7216,
      "jackson": 7217,
      "marduk": 7218,
      "armpits": 7219,
      "kidnapped": 7220,
      "skeleton": 7221,
      "dur": 7222,
      "faces": 7223,
      "gmo": 7224,
      "itself": 7225,
      "enrolled": 7226,
      "wester": 7227,
      "etic": 7228,
      "goodbye": 7229,
      "unusual": 7230,
      "aked": 7231,
      "shed": 7232,
      "april": 7233,
      "bookkeeping": 7234,
      "quebec": 7235,
      "subjects": 7236,
      "fortunately": 7237,
      "208": 7238,
      "actors": 7239,
      "atory": 7240,
      "terribly": 7241,
      "developed": 7242,
      "pretenders": 7243,
      "tutoring": 7244,
      "maxed": 7245,
      "cheeks": 7246,
      "tricky": 7247,
      "microsoft": 7248,
      "encoura": 7249,
      "proposing": 7250,
      "lollipops": 7251,
      "debutante": 7252,
      "cucumbers": 7253,
      "bound": 7254,
      "cé": 7255,
      "dmv": 7256,
      "hats": 7257,
      "loun": 7258,
      "yy": 7259,
      "tox": 7260,
      "note": 7261,
      "unit": 7262,
      "akers": 7263,
      "somehow": 7264,
      "marine": 7265,
      "needles": 7266,
      "traveler": 7267,
      "tions": 7268,
      "wave": 7269,
      "monkeys": 7270,
      "chon": 7271,
      "picnics": 7272,
      "cram": 7273,
      "testing": 7274,
      "nicer": 7275,
      "block": 7276,
      "repairs": 7277,
      "mentioned": 7278,
      "documentary": 7279,
      "property": 7280,
      "threw": 7281,
      "tasks": 7282,
      "sketch": 7283,
      "regret": 7284,
      "dunno": 7285,
      "fiancé": 7286,
      "slacker": 7287,
      "rancid": 7288,
      "cta": 7289,
      "egy": 7290,
      "tick": 7291,
      "twel": 7292,
      "intri": 7293,
      "melo": 7294,
      "whil": 7295,
      "neg": 7296,
      "jovan": 7297,
      "kswag": 7298,
      "okla": 7299,
      "conservative": 7300,
      "driac": 7301,
      "steam": 7302,
      "volkswag": 7303,
      "duct": 7304,
      "builder": 7305,
      "eyesight": 7306,
      "miche": 7307,
      "mingle": 7308,
      "wilder": 7309,
      "accidentally": 7310,
      "effe": 7311,
      "walls": 7312,
      "consuming": 7313,
      "introver": 7314,
      "pirate": 7315,
      "bothers": 7316,
      "employees": 7317,
      "encourage": 7318,
      "spooky": 7319,
      "leftover": 7320,
      "hypochon": 7321,
      "twelve": 7322,
      "intrigu": 7323,
      "hypochondriac": 7324,
      "alo": 7325,
      "iro": 7326,
      "jill": 7327,
      "korn": 7328,
      "lbs": 7329,
      "mt": 7330,
      "wwe": 7331,
      "yan": 7332,
      "thx": 7333,
      "toast": 7334,
      "oranges": 7335,
      "steven": 7336,
      "heh": 7337,
      "loser": 7338,
      "noises": 7339,
      "bump": 7340,
      "fecta": 7341,
      "whel": 7342,
      "devo": 7343,
      "wherever": 7344,
      "grace": 7345,
      "offshore": 7346,
      "walker": 7347,
      "dram": 7348,
      "overnight": 7349,
      "overwhel": 7350,
      "creation": 7351,
      "underwater": 7352,
      "clears": 7353,
      "craw": 7354,
      "trifecta": 7355,
      "swimsuit": 7356,
      "hyper": 7357,
      "babydoll": 7358,
      "ladas": 7359,
      "deniro": 7360,
      "fantasize": 7361,
      "criminal": 7362,
      "tabletop": 7363,
      "experiences": 7364,
      "shyness": 7365,
      "jerk": 7366,
      "jimi": 7367,
      "retailer": 7368,
      "oooooooo": 7369,
      "autograph": 7370,
      "baths": 7371,
      "sentence": 7372,
      "stealing": 7373,
      "costumes": 7374,
      "cracked": 7375,
      "dumped": 7376,
      "recruiter": 7377,
      "pnb": 7378,
      "dv": 7379,
      "elo": 7380,
      "kim": 7381,
      "pting": 7382,
      "wra": 7383,
      "inse": 7384,
      "thir": 7385,
      "release": 7386,
      "doc": 7387,
      "stit": 7388,
      "energ": 7389,
      "chick": 7390,
      "daytime": 7391,
      "raz": 7392,
      "coolest": 7393,
      "doggies": 7394,
      "mph": 7395,
      "creations": 7396,
      "horri": 7397,
      "igious": 7398,
      "relaxes": 7399,
      "relaxation": 7400,
      "greenberg": 7401,
      "turtle": 7402,
      "diets": 7403,
      "pickled": 7404,
      "iowa": 7405,
      "maintain": 7406,
      "pedal": 7407,
      "worrying": 7408,
      "2000s": 7409,
      "laptops": 7410,
      "jumping": 7411,
      "meditating": 7412,
      "architecture": 7413,
      "blessing": 7414,
      "crowd": 7415,
      "route": 7416,
      "continue": 7417,
      "tampa": 7418,
      "enthusiast": 7419,
      "prestigious": 7420,
      "majored": 7421,
      "rand": 7422,
      "rhy": 7423,
      "tn": 7424,
      "zes": 7425,
      "refresh": 7426,
      "hel": 7427,
      "nove": 7428,
      "aland": 7429,
      "forced": 7430,
      "thered": 7431,
      "bilingual": 7432,
      "stocker": 7433,
      "complicat": 7434,
      "bret": 7435,
      "fio": 7436,
      "ignor": 7437,
      "wonderfully": 7438,
      "lands": 7439,
      "vored": 7440,
      "casual": 7441,
      "interview": 7442,
      "vegetarians": 7443,
      "weightlifting": 7444,
      "detest": 7445,
      "flavored": 7446,
      "sharp": 7447,
      "throwing": 7448,
      "rashad": 7449,
      "geez": 7450,
      "martinis": 7451,
      "grasshopper": 7452,
      "crystals": 7453,
      "seeds": 7454,
      "android": 7455,
      "period": 7456,
      "specialize": 7457,
      "disease": 7458,
      "28": 7459,
      "79": 7460,
      "lass": 7461,
      "invent": 7462,
      "rer": 7463,
      "repe": 7464,
      "meow": 7465,
      "hog": 7466,
      "section": 7467,
      "gods": 7468,
      "bust": 7469,
      "amen": 7470,
      "ksha": 7471,
      "prepping": 7472,
      "ours": 7473,
      "poster": 7474,
      "resour": 7475,
      "intoler": 7476,
      "talents": 7477,
      "classy": 7478,
      "freeze": 7479,
      "stuffs": 7480,
      "milksha": 7481,
      "metro": 7482,
      "yumi": 7483,
      "obese": 7484,
      "ticket": 7485,
      "nutr": 7486,
      "legally": 7487,
      "coaching": 7488,
      "tropical": 7489,
      "spoke": 7490,
      "bagel": 7491,
      "confusing": 7492,
      "overeat": 7493,
      "cuisines": 7494,
      "wasting": 7495,
      "requires": 7496,
      "critic": 7497,
      "violent": 7498,
      "reincarn": 7499,
      "whilst": 7500,
      "yanke": 7501,
      "cds": 7502,
      "kore": 7503,
      "oste": 7504,
      "opath": 7505,
      "shave": 7506,
      "task": 7507,
      "redo": 7508,
      "relocated": 7509,
      "haired": 7510,
      "plat": 7511,
      "fears": 7512,
      "irc": 7513,
      "audi": 7514,
      "petty": 7515,
      "thanksgiving": 7516,
      "planing": 7517,
      "penci": 7518,
      "fulltime": 7519,
      "smaller": 7520,
      "scient": 7521,
      "practically": 7522,
      "pastries": 7523,
      "impression": 7524,
      "juicy": 7525,
      "vacationing": 7526,
      "drum": 7527,
      "european": 7528,
      "aaa": 7529,
      "wrestler": 7530,
      "jumped": 7531,
      "deployments": 7532,
      "nissan": 7533,
      "robbery": 7534,
      "disgusting": 7535,
      "osteopath": 7536,
      "crun": 7537,
      "cring": 7538,
      "gir": 7539,
      "nina": 7540,
      "pm": 7541,
      "toward": 7542,
      "belly": 7543,
      "asing": 7544,
      "tially": 7545,
      "modeling": 7546,
      "bute": 7547,
      "bobby": 7548,
      "grind": 7549,
      "ideal": 7550,
      "manic": 7551,
      "mangos": 7552,
      "prov": 7553,
      "talker": 7554,
      "showed": 7555,
      "overtime": 7556,
      "classically": 7557,
      "cubs": 7558,
      "hut": 7559,
      "jail": 7560,
      "yorkie": 7561,
      "migrated": 7562,
      "tility": 7563,
      "solution": 7564,
      "packers": 7565,
      "further": 7566,
      "teens": 7567,
      "saturdays": 7568,
      "organization": 7569,
      "pretending": 7570,
      "surprising": 7571,
      "material": 7572,
      "jesse": 7573,
      "alexander": 7574,
      "surroundings": 7575,
      "dedicated": 7576,
      "transportation": 7577,
      "registered": 7578,
      "rehearsing": 7579,
      "cigarettes": 7580,
      "nutrition": 7581,
      "cringe": 7582,
      "girly": 7583,
      "7th": 7584,
      "nate": 7585,
      "pta": 7586,
      "sang": 7587,
      "thru": 7588,
      "ango": 7589,
      "loan": 7590,
      "allig": 7591,
      "wie": 7592,
      "eteria": 7593,
      "outs": 7594,
      "washer": 7595,
      "botox": 7596,
      "essenti": 7597,
      "fuel": 7598,
      "listens": 7599,
      "digging": 7600,
      "overrated": 7601,
      "yearly": 7602,
      "cloth": 7603,
      "nerve": 7604,
      "hulu": 7605,
      "supernatural": 7606,
      "colder": 7607,
      "controlled": 7608,
      "darker": 7609,
      "patch": 7610,
      "tommy": 7611,
      "fantasizing": 7612,
      "blogging": 7613,
      "spoken": 7614,
      "pumped": 7615,
      "helloooo": 7616,
      "changes": 7617,
      "confession": 7618,
      "humid": 7619,
      "cafeteria": 7620,
      "eeee": 7621,
      "thursdays": 7622,
      "honorable": 7623,
      "daisy": 7624,
      "threat": 7625,
      "blanket": 7626,
      "rabbits": 7627,
      "thierry": 7628,
      "supplement": 7629,
      "economics": 7630,
      "michelle": 7631,
      "guring": 7632,
      "jace": 7633,
      "kate": 7634,
      "rc": 7635,
      "tler": 7636,
      "dozen": 7637,
      "lik": 7638,
      "envy": 7639,
      "edit": 7640,
      "acqu": 7641,
      "gresham": 7642,
      "feat": 7643,
      "previously": 7644,
      "bowie": 7645,
      "maps": 7646,
      "sheep": 7647,
      "rested": 7648,
      "poker": 7649,
      "dipped": 7650,
      "syfy": 7651,
      "tual": 7652,
      "figuring": 7653,
      "grandparent": 7654,
      "disagree": 7655,
      "rained": 7656,
      "pickle": 7657,
      "flown": 7658,
      "messes": 7659,
      "decade": 7660,
      "skittler": 7661,
      "frozen": 7662,
      "sourced": 7663,
      "screaming": 7664,
      "connected": 7665,
      "grasshoppers": 7666,
      "expecting": 7667,
      "reincarnated": 7668,
      "scientists": 7669,
      "ape": 7670,
      "dirt": 7671,
      "ix": 7672,
      "mraz": 7673,
      "tent": 7674,
      "yah": 7675,
      "zo": 7676,
      "zu": 7677,
      "rebuild": 7678,
      "tower": 7679,
      "thesis": 7680,
      "llie": 7681,
      "ero": 7682,
      "edge": 7683,
      "workaholic": 7684,
      "faves": 7685,
      "icecream": 7686,
      "urge": 7687,
      "fright": 7688,
      "ppi": 7689,
      "ruined": 7690,
      "pope": 7691,
      "sippi": 7692,
      "shots": 7693,
      "quil": 7694,
      "parrots": 7695,
      "nerds": 7696,
      "curls": 7697,
      "sissippi": 7698,
      "mississippi": 7699,
      "dancers": 7700,
      "southwest": 7701,
      "tourname": 7702,
      "numan": 7703,
      "collections": 7704,
      "bearded": 7705,
      "surgeries": 7706,
      "fficient": 7707,
      "bonus": 7708,
      "spoil": 7709,
      "cafes": 7710,
      "jenn": 7711,
      "rescues": 7712,
      "risky": 7713,
      "scarf": 7714,
      "touches": 7715,
      "animation": 7716,
      "crackers": 7717,
      "corporation": 7718,
      "maltese": 7719,
      "streaming": 7720,
      "reenactment": 7721,
      "bic": 7722,
      "ffin": 7723,
      "kane": 7724,
      "lk": 7725,
      "enchi": 7726,
      "likely": 7727,
      "ros": 7728,
      "adjust": 7729,
      "timid": 7730,
      "playstation": 7731,
      "ishment": 7732,
      "map": 7733,
      "pod": 7734,
      "chills": 7735,
      "boyfriends": 7736,
      "windows": 7737,
      "tured": 7738,
      "trash": 7739,
      "triple": 7740,
      "understands": 7741,
      "headaches": 7742,
      "gene": 7743,
      "venison": 7744,
      "cleaned": 7745,
      "relative": 7746,
      "collected": 7747,
      "oceans": 7748,
      "hoops": 7749,
      "garlic": 7750,
      "goof": 7751,
      "journalism": 7752,
      "cherish": 7753,
      "theaters": 7754,
      "required": 7755,
      "opinions": 7756,
      "machine": 7757,
      "frustrating": 7758,
      "conventions": 7759,
      "guesthouse": 7760,
      "concentrate": 7761,
      "spilled": 7762,
      "signing": 7763,
      "troubles": 7764,
      "americans": 7765,
      "dealership": 7766,
      "resources": 7767,
      "enchiladas": 7768,
      "47": 7769,
      "ized": 7770,
      "lag": 7771,
      "laughter": 7772,
      "rr": 7773,
      "anda": 7774,
      "hift": 7775,
      "pective": 7776,
      "prefe": 7777,
      "precious": 7778,
      "ppy": 7779,
      "gulf": 7780,
      "quiz": 7781,
      "broo": 7782,
      "veganism": 7783,
      "passive": 7784,
      "laws": 7785,
      "headsets": 7786,
      "charles": 7787,
      "zealand": 7788,
      "stylish": 7789,
      "garbage": 7790,
      "zoom": 7791,
      "effort": 7792,
      "hippos": 7793,
      "bartending": 7794,
      "clearly": 7795,
      "sneakers": 7796,
      "remodeling": 7797,
      "stickshift": 7798,
      "powers": 7799,
      "crashes": 7800,
      "phobias": 7801,
      "tatoos": 7802,
      "noodles": 7803,
      "individual": 7804,
      "refreshing": 7805,
      "215": 7806,
      "ail": 7807,
      "fty": 7808,
      "ution": 7809,
      "inch": 7810,
      "revol": 7811,
      "hote": 7812,
      "archa": 7813,
      "sox": 7814,
      "feast": 7815,
      "wolf": 7816,
      "excer": 7817,
      "animat": 7818,
      "offers": 7819,
      "shoulders": 7820,
      "brad": 7821,
      "tuber": 7822,
      "montan": 7823,
      "berries": 7824,
      "offered": 7825,
      "gardener": 7826,
      "sunrise": 7827,
      "climate": 7828,
      "middles": 7829,
      "ironically": 7830,
      "womens": 7831,
      "educational": 7832,
      "floating": 7833,
      "corvettes": 7834,
      "loaded": 7835,
      "scription": 7836,
      "flirt": 7837,
      "admiring": 7838,
      "critical": 7839,
      "opportunities": 7840,
      "satisfy": 7841,
      "accomplished": 7842,
      "western": 7843,
      "jovannie": 7844,
      "introverted": 7845,
      "hotels": 7846,
      "archae": 7847,
      "excercise": 7848,
      "animator": 7849,
      "middlesex": 7850,
      "bouncer": 7851,
      "dread": 7852,
      "ibility": 7853,
      "kn": 7854,
      "lts": 7855,
      "pun": 7856,
      "tread": 7857,
      "wreck": 7858,
      "reached": 7859,
      "theory": 7860,
      "hole": 7861,
      "stations": 7862,
      "libre": 7863,
      "soli": 7864,
      "wif": 7865,
      "unpacking": 7866,
      "amer": 7867,
      "artwork": 7868,
      "manga": 7869,
      "tenth": 7870,
      "laun": 7871,
      "wondered": 7872,
      "farmhand": 7873,
      "sonny": 7874,
      "mighty": 7875,
      "buys": 7876,
      "fallen": 7877,
      "florist": 7878,
      "hens": 7879,
      "entering": 7880,
      "legit": 7881,
      "phew": 7882,
      "furry": 7883,
      "komodo": 7884,
      "protection": 7885,
      "disappoints": 7886,
      "suggestion": 7887,
      "rescued": 7888,
      "eighties": 7889,
      "zerland": 7890,
      "janet": 7891,
      "discuss": 7892,
      "transitioned": 7893,
      "switzerland": 7894,
      "abu": 7895,
      "ku": 7896,
      "kath": 7897,
      "lers": 7898,
      "sane": 7899,
      "uber": 7900,
      "replace": 7901,
      "removed": 7902,
      "ooo": 7903,
      "hiker": 7904,
      "weiser": 7905,
      "bully": 7906,
      "rig": 7907,
      "ads": 7908,
      "uncha": 7909,
      "fame": 7910,
      "canni": 7911,
      "urus": 7912,
      "ceed": 7913,
      "premature": 7914,
      "subs": 7915,
      "shining": 7916,
      "marks": 7917,
      "maroon": 7918,
      "sings": 7919,
      "iles": 7920,
      "haircut": 7921,
      "businesses": 7922,
      "dinners": 7923,
      "closely": 7924,
      "idaho": 7925,
      "ringing": 7926,
      "delight": 7927,
      "fighters": 7928,
      "20s": 7929,
      "bulldogs": 7930,
      "laser": 7931,
      "budweiser": 7932,
      "protective": 7933,
      "succeed": 7934,
      "locked": 7935,
      "django": 7936,
      "applied": 7937,
      "dolphin": 7938,
      "inherited": 7939,
      "qualify": 7940,
      "exclusively": 7941,
      "cloths": 7942,
      "archaeologist": 7943,
      "unchained": 7944,
      "33": 7945,
      "avet": 7946,
      "bryan": 7947,
      "jared": 7948,
      "tang": 7949,
      "aldi": 7950,
      "mob": 7951,
      "neuro": 7952,
      "awards": 7953,
      "donating": 7954,
      "cipl": 7955,
      "sip": 7956,
      "carri": 7957,
      "biggie": 7958,
      "bait": 7959,
      "household": 7960,
      "preferably": 7961,
      "discipl": 7962,
      "duh": 7963,
      "cris": 7964,
      "terrific": 7965,
      "bloated": 7966,
      "ahhh": 7967,
      "lamb": 7968,
      "creativity": 7969,
      "landscape": 7970,
      "snuggles": 7971,
      "timberlake": 7972,
      "sneeze": 7973,
      "smarter": 7974,
      "avett": 7975,
      "naught": 7976,
      "wuss": 7977,
      "goin": 7978,
      "cog": 7979,
      "codi": 7980,
      "motive": 7981,
      "unhappy": 7982,
      "acked": 7983,
      "gres": 7984,
      "cereal": 7985,
      "nicely": 7986,
      "spit": 7987,
      "august": 7988,
      "awsome": 7989,
      "billy": 7990,
      "elite": 7991,
      "llect": 7992,
      "kindle": 7993,
      "assing": 7994,
      "intellect": 7995,
      "smiles": 7996,
      "purchased": 7997,
      "burned": 7998,
      "juices": 7999,
      "drown": 8000,
      "writers": 8001,
      "crocodi": 8002,
      "tests": 8003,
      "bullied": 8004,
      "depending": 8005,
      "tempt": 8006,
      "grounded": 8007,
      "abilities": 8008,
      "weirdo": 8009,
      "beginning": 8010,
      "volkswagen": 8011,
      "ignoring": 8012,
      "ipod": 8013,
      "ninet": 8014,
      "ossi": 8015,
      "pin": 8016,
      "rink": 8017,
      "ormal": 8018,
      "kelly": 8019,
      "amanda": 8020,
      "icide": 8021,
      "sod": 8022,
      "solo": 8023,
      "yell": 8024,
      "deck": 8025,
      "subar": 8026,
      "sumba": 8027,
      "taurus": 8028,
      "hahahaha": 8029,
      "curry": 8030,
      "sunflower": 8031,
      "discounts": 8032,
      "impossi": 8033,
      "immedi": 8034,
      "venue": 8035,
      "apartments": 8036,
      "polite": 8037,
      "irene": 8038,
      "steph": 8039,
      "distrac": 8040,
      "giver": 8041,
      "biological": 8042,
      "ordering": 8043,
      "journey": 8044,
      "cheering": 8045,
      "expand": 8046,
      "scot": 8047,
      "transgender": 8048,
      "vestie": 8049,
      "smoothies": 8050,
      "21st": 8051,
      "comedians": 8052,
      "destination": 8053,
      "commendable": 8054,
      "attacked": 8055,
      "borderline": 8056,
      "introduce": 8057,
      "deserve": 8058,
      "technical": 8059,
      "royal": 8060,
      "benefit": 8061,
      "paranormal": 8062,
      "overwhelmed": 8063,
      "dvd": 8064,
      "wrapped": 8065,
      "naughty": 8066,
      "subaru": 8067,
      "impossible": 8068,
      "dwell": 8069,
      "mam": 8070,
      "tends": 8071,
      "yar": 8072,
      "intimid": 8073,
      "youtuber": 8074,
      "beth": 8075,
      "feline": 8076,
      "term": 8077,
      "doggy": 8078,
      "donkey": 8079,
      "rences": 8080,
      "kenstein": 8081,
      "comment": 8082,
      "alice": 8083,
      "vegetarianism": 8084,
      "filmed": 8085,
      "30k": 8086,
      "spirits": 8087,
      "politic": 8088,
      "decorated": 8089,
      "hippies": 8090,
      "decades": 8091,
      "translate": 8092,
      "phd": 8093,
      "squad": 8094,
      "newspapers": 8095,
      "gambler": 8096,
      "gamblers": 8097,
      "destiny": 8098,
      "trades": 8099,
      "freaky": 8100,
      "colum": 8101,
      "regional": 8102,
      "woohoo": 8103,
      "frankenstein": 8104,
      "latin": 8105,
      "biscuits": 8106,
      "results": 8107,
      "solve": 8108,
      "crummy": 8109,
      "aborate": 8110,
      "intriguing": 8111,
      "november": 8112,
      "essential": 8113,
      "laundry": 8114,
      "55": 8115,
      "9th": 8116,
      "bicy": 8117,
      "dred": 8118,
      "nite": 8119,
      "oma": 8120,
      "rl": 8121,
      "rely": 8122,
      "isa": 8123,
      "esp": 8124,
      "tific": 8125,
      "unsociable": 8126,
      "lyric": 8127,
      "bodies": 8128,
      "bien": 8129,
      "console": 8130,
      "broker": 8131,
      "sorting": 8132,
      "whose": 8133,
      "overcome": 8134,
      "startup": 8135,
      "bora": 8136,
      "hundred": 8137,
      "jeep": 8138,
      "adobe": 8139,
      "practical": 8140,
      "chalk": 8141,
      "vacu": 8142,
      "sixteen": 8143,
      "paced": 8144,
      "50s": 8145,
      "posted": 8146,
      "powerful": 8147,
      "skilled": 8148,
      "cowboy": 8149,
      "apologies": 8150,
      "trends": 8151,
      "floods": 8152,
      "satisfied": 8153,
      "namaste": 8154,
      "necessarily": 8155,
      "iraq": 8156,
      "melody": 8157,
      "hust": 8158,
      "tah": 8159,
      "wander": 8160,
      "toll": 8161,
      "isure": 8162,
      "lime": 8163,
      "eric": 8164,
      "ens": 8165,
      "aline": 8166,
      "levin": 8167,
      "leisure": 8168,
      "rover": 8169,
      "unks": 8170,
      "plu": 8171,
      "gress": 8172,
      "peas": 8173,
      "function": 8174,
      "watcher": 8175,
      "mud": 8176,
      "guide": 8177,
      "exten": 8178,
      "conce": 8179,
      "conspir": 8180,
      "poss": 8181,
      "cookbook": 8182,
      "bron": 8183,
      "permit": 8184,
      "sku": 8185,
      "amax": 8186,
      "sail": 8187,
      "jere": 8188,
      "jelly": 8189,
      "ps4": 8190,
      "excess": 8191,
      "earbuds": 8192,
      "ducks": 8193,
      "lower": 8194,
      "julie": 8195,
      "tended": 8196,
      "pickup": 8197,
      "yaa": 8198,
      "2011": 8199,
      "added": 8200,
      "cups": 8201,
      "smelling": 8202,
      "fatty": 8203,
      "literal": 8204,
      "flav": 8205,
      "princesses": 8206,
      "brief": 8207,
      "bridge": 8208,
      "pulled": 8209,
      "flights": 8210,
      "reports": 8211,
      "animations": 8212,
      "volcano": 8213,
      "sculptures": 8214,
      "mundane": 8215,
      "duramax": 8216,
      "immediately": 8217,
      "lyrics": 8218,
      "64": 8219,
      "bam": 8220,
      "ib": 8221,
      "mery": 8222,
      "arches": 8223,
      "amation": 8224,
      "hipho": 8225,
      "coverage": 8226,
      "teh": 8227,
      "washed": 8228,
      "spices": 8229,
      "guel": 8230,
      "bling": 8231,
      "pleased": 8232,
      "rum": 8233,
      "marching": 8234,
      "checked": 8235,
      "carrot": 8236,
      "chie": 8237,
      "quart": 8238,
      "resist": 8239,
      "partners": 8240,
      "sleeps": 8241,
      "ults": 8242,
      "juggle": 8243,
      "miguel": 8244,
      "definately": 8245,
      "smartphones": 8246,
      "radar": 8247,
      "packed": 8248,
      "banana": 8249,
      "eyebrow": 8250,
      "samples": 8251,
      "technological": 8252,
      "consume": 8253,
      "explode": 8254,
      "scratched": 8255,
      "respectful": 8256,
      "reggae": 8257,
      "gentleman": 8258,
      "healing": 8259,
      "snuggle": 8260,
      "perfectionist": 8261,
      "exclamation": 8262,
      "advant": 8263,
      "plotting": 8264,
      "behavioral": 8265,
      "cinema": 8266,
      "threatening": 8267,
      "jennifer": 8268,
      "neurotic": 8269,
      "hiphop": 8270,
      "ea": 8271,
      "jed": 8272,
      "utility": 8273,
      "oul": 8274,
      "oustic": 8275,
      "homa": 8276,
      "heated": 8277,
      "bedroo": 8278,
      "likewise": 8279,
      "solit": 8280,
      "acoustic": 8281,
      "tear": 8282,
      "awn": 8283,
      "donated": 8284,
      "carbon": 8285,
      "carib": 8286,
      "stole": 8287,
      "compare": 8288,
      "bathing": 8289,
      "pugs": 8290,
      "gage": 8291,
      "yodel": 8292,
      "susan": 8293,
      "backs": 8294,
      "boxing": 8295,
      "mechanical": 8296,
      "brutal": 8297,
      "addict": 8298,
      "roleplaying": 8299,
      "indians": 8300,
      "marrying": 8301,
      "doug": 8302,
      "orphanage": 8303,
      "flirted": 8304,
      "gangsta": 8305,
      "split": 8306,
      "powder": 8307,
      "jackets": 8308,
      "blankets": 8309,
      "gadgets": 8310,
      "negative": 8311,
      "oklahoma": 8312,
      "eloped": 8313,
      "korean": 8314,
      "treadmill": 8315,
      "wifes": 8316,
      "bedroom": 8317,
      "caribbean": 8318,
      "4h": 8319,
      "gloo": 8320,
      "swords": 8321,
      "soooo": 8322,
      "zart": 8323,
      "thon": 8324,
      "themed": 8325,
      "arest": 8326,
      "among": 8327,
      "bums": 8328,
      "mold": 8329,
      "mozart": 8330,
      "tees": 8331,
      "bore": 8332,
      "entry": 8333,
      "hobbit": 8334,
      "listing": 8335,
      "managing": 8336,
      "listener": 8337,
      "lux": 8338,
      "mondays": 8339,
      "realy": 8340,
      "theirs": 8341,
      "genetic": 8342,
      "handed": 8343,
      "mcgreg": 8344,
      "telecommunications": 8345,
      "plantation": 8346,
      "trusting": 8347,
      "1979": 8348,
      "deter": 8349,
      "slowly": 8350,
      "filling": 8351,
      "blowing": 8352,
      "pattern": 8353,
      "performed": 8354,
      "microwave": 8355,
      "animated": 8356,
      "bags": 8357,
      "jacket": 8358,
      "crystal": 8359,
      "necessary": 8360,
      "deceased": 8361,
      "performance": 8362,
      "gloomy": 8363,
      "gpa": 8364,
      "kart": 8365,
      "oats": 8366,
      "inven": 8367,
      "released": 8368,
      "begging": 8369,
      "sopho": 8370,
      "roger": 8371,
      "dews": 8372,
      "sued": 8373,
      "sudden": 8374,
      "suicide": 8375,
      "mari": 8376,
      "marley": 8377,
      "siri": 8378,
      "clum": 8379,
      "stocking": 8380,
      "pages": 8381,
      "resses": 8382,
      "partially": 8383,
      "cuts": 8384,
      "desired": 8385,
      "burnt": 8386,
      "soundtrack": 8387,
      "handsome": 8388,
      "roads": 8389,
      "pacific": 8390,
      "30s": 8391,
      "librarians": 8392,
      "cruel": 8393,
      "socializing": 8394,
      "billion": 8395,
      "location": 8396,
      "supply": 8397,
      "sighted": 8398,
      "invited": 8399,
      "ohhh": 8400,
      "ownership": 8401,
      "advance": 8402,
      "ignored": 8403,
      "arguments": 8404,
      "milkshakes": 8405,
      "gressive": 8406,
      "clumsy": 8407,
      "34": 8408,
      "av": 8409,
      "cm": 8410,
      "cage": 8411,
      "cado": 8412,
      "cinde": 8413,
      "ec": 8414,
      "gm": 8415,
      "lun": 8416,
      "moo": 8417,
      "zone": 8418,
      "rella": 8419,
      "toss": 8420,
      "oop": 8421,
      "entered": 8422,
      "hibit": 8423,
      "lect": 8424,
      "justice": 8425,
      "idio": 8426,
      "rapping": 8427,
      "bland": 8428,
      "grac": 8429,
      "newton": 8430,
      "assessor": 8431,
      "poten": 8432,
      "poison": 8433,
      "seemed": 8434,
      "morow": 8435,
      "ives": 8436,
      "hassle": 8437,
      "spear": 8438,
      "barking": 8439,
      "menting": 8440,
      "cajun": 8441,
      "charm": 8442,
      "fourth": 8443,
      "presso": 8444,
      "skip": 8445,
      "fitting": 8446,
      "bringing": 8447,
      "tommorow": 8448,
      "adventist": 8449,
      "terrifying": 8450,
      "deta": 8451,
      "crafty": 8452,
      "oppo": 8453,
      "attach": 8454,
      "honors": 8455,
      "promote": 8456,
      "blows": 8457,
      "analyze": 8458,
      "slipped": 8459,
      "parakeets": 8460,
      "hallmark": 8461,
      "martini": 8462,
      "csr": 8463,
      "december": 8464,
      "priority": 8465,
      "montana": 8466,
      "delightful": 8467,
      "cogni": 8468,
      "cinderella": 8469,
      "dum": 8470,
      "ewww": 8471,
      "knot": 8472,
      "lust": 8473,
      "munch": 8474,
      "ured": 8475,
      "reference": 8476,
      "recreation": 8477,
      "hono": 8478,
      "erole": 8479,
      "som": 8480,
      "goth": 8481,
      "cozy": 8482,
      "pee": 8483,
      "felines": 8484,
      "terms": 8485,
      "predic": 8486,
      "eaters": 8487,
      "enjoyment": 8488,
      "catfish": 8489,
      "redu": 8490,
      "reduit": 8491,
      "biker": 8492,
      "assig": 8493,
      "quo": 8494,
      "whoo": 8495,
      "cuit": 8496,
      "skunks": 8497,
      "gains": 8498,
      "craz": 8499,
      "bargains": 8500,
      "minis": 8501,
      "fourteen": 8502,
      "internation": 8503,
      "warcraft": 8504,
      "settling": 8505,
      "shapes": 8506,
      "grammy": 8507,
      "imagination": 8508,
      "prized": 8509,
      "ranked": 8510,
      "district": 8511,
      "production": 8512,
      "channels": 8513,
      "experiment": 8514,
      "thrilling": 8515,
      "artsy": 8516,
      "cardio": 8517,
      "virtual": 8518,
      "sweethearts": 8519,
      "receive": 8520,
      "constant": 8521,
      "destroy": 8522,
      "greedy": 8523,
      "atlantic": 8524,
      "improving": 8525,
      "injured": 8526,
      "bottom": 8527,
      "pushing": 8528,
      "convinced": 8529,
      "casserole": 8530,
      "referring": 8531,
      "alligator": 8532,
      "advantage": 8533,
      "internationally": 8534,
      "gic": 8535,
      "glit": 8536,
      "ials": 8537,
      "lace": 8538,
      "vist": 8539,
      "wrec": 8540,
      "zach": 8541,
      "tober": 8542,
      "orient": 8543,
      "stab": 8544,
      "stroll": 8545,
      "nost": 8546,
      "ales": 8547,
      "forms": 8548,
      "goats": 8549,
      "readin": 8550,
      "ineers": 8551,
      "funky": 8552,
      "livestock": 8553,
      "waters": 8554,
      "marvel": 8555,
      "propose": 8556,
      "shoulder": 8557,
      "wonders": 8558,
      "waist": 8559,
      "ancing": 8560,
      "clever": 8561,
      "passat": 8562,
      "waitressing": 8563,
      "growth": 8564,
      "cave": 8565,
      "interaction": 8566,
      "shih": 8567,
      "october": 8568,
      "smoker": 8569,
      "leading": 8570,
      "effect": 8571,
      "circuit": 8572,
      "mansions": 8573,
      "toyotas": 8574,
      "drying": 8575,
      "occasions": 8576,
      "poodles": 8577,
      "package": 8578,
      "scooby": 8579,
      "dreary": 8580,
      "murders": 8581,
      "academic": 8582,
      "eldest": 8583,
      "toured": 8584,
      "mutt": 8585,
      "mutineers": 8586,
      "stairmaster": 8587,
      "weapon": 8588,
      "wicked": 8589,
      "dedication": 8590,
      "convince": 8591,
      "peachy": 8592,
      "reptiles": 8593,
      "effects": 8594,
      "aloha": 8595,
      "cannibal": 8596,
      "wrecked": 8597,
      "54": 8598,
      "eww": 8599,
      "lton": 8600,
      "rassing": 8601,
      "sas": 8602,
      "sac": 8603,
      "rey": 8604,
      "realized": 8605,
      "atari": 8606,
      "andra": 8607,
      "loma": 8608,
      "below": 8609,
      "beloved": 8610,
      "sel": 8611,
      "hilton": 8612,
      "gomery": 8613,
      "tian": 8614,
      "unfair": 8615,
      "deon": 8616,
      "sum": 8617,
      "shut": 8618,
      "reddish": 8619,
      "herd": 8620,
      "listed": 8621,
      "offense": 8622,
      "shocked": 8623,
      "coloring": 8624,
      "hases": 8625,
      "culine": 8626,
      "amazed": 8627,
      "gazing": 8628,
      "watering": 8629,
      "bedtime": 8630,
      "warming": 8631,
      "skipped": 8632,
      "masculine": 8633,
      "printed": 8634,
      "accidents": 8635,
      "banjo": 8636,
      "consist": 8637,
      "battles": 8638,
      "braz": 8639,
      "lifes": 8640,
      "pleasures": 8641,
      "liaison": 8642,
      "hippy": 8643,
      "grape": 8644,
      "montgomery": 8645,
      "sooo": 8646,
      "scarlet": 8647,
      "touched": 8648,
      "escaping": 8649,
      "flooding": 8650,
      "debating": 8651,
      "flexibility": 8652,
      "diploma": 8653,
      "timberlike": 8654,
      "banging": 8655,
      "appearance": 8656,
      "embarrassing": 8657,
      "physician": 8658,
      "treasures": 8659,
      "complicated": 8660,
      "audience": 8661,
      "tournament": 8662,
      "preferences": 8663,
      "extensive": 8664,
      "inventory": 8665,
      "eager": 8666,
      "hint": 8667,
      "js": 8668,
      "knight": 8669,
      "owed": 8670,
      "pjs": 8671,
      "sher": 8672,
      "incre": 8673,
      "infer": 8674,
      "toy": 8675,
      "isy": 8676,
      "mellow": 8677,
      "hopes": 8678,
      "kesha": 8679,
      "noisy": 8680,
      "allot": 8681,
      "outback": 8682,
      "tire": 8683,
      "females": 8684,
      "ppings": 8685,
      "foli": 8686,
      "torna": 8687,
      "bathe": 8688,
      "smh": 8689,
      "chore": 8690,
      "hunger": 8691,
      "basics": 8692,
      "natures": 8693,
      "volunteered": 8694,
      "birthplace": 8695,
      "mbies": 8696,
      "poorly": 8697,
      "jammin": 8698,
      "automotive": 8699,
      "involving": 8700,
      "bond": 8701,
      "cultured": 8702,
      "scenic": 8703,
      "treatment": 8704,
      "attract": 8705,
      "investment": 8706,
      "translating": 8707,
      "sexual": 8708,
      "remote": 8709,
      "crowds": 8710,
      "touching": 8711,
      "articles": 8712,
      "cheeses": 8713,
      "proofreader": 8714,
      "obligated": 8715,
      "procedure": 8716,
      "reflection": 8717,
      "wilderness": 8718,
      "devoted": 8719,
      "zombies": 8720,
      "luxury": 8721,
      "recreational": 8722,
      "75": 8723,
      "bbles": 8724,
      "fab": 8725,
      "sits": 8726,
      "vuit": 8727,
      "reo": 8728,
      "lips": 8729,
      "espn": 8730,
      "belief": 8731,
      "separ": 8732,
      "aswell": 8733,
      "cock": 8734,
      "feminist": 8735,
      "scif": 8736,
      "spread": 8737,
      "kiddo": 8738,
      "guest": 8739,
      "pocket": 8740,
      "fool": 8741,
      "highway": 8742,
      "stereo": 8743,
      "downfall": 8744,
      "monthly": 8745,
      "mint": 8746,
      "tonite": 8747,
      "interact": 8748,
      "poop": 8749,
      "ionship": 8750,
      "pieces": 8751,
      "reliever": 8752,
      "laps": 8753,
      "included": 8754,
      "bothering": 8755,
      "aspirations": 8756,
      "silence": 8757,
      "injuries": 8758,
      "performing": 8759,
      "redheads": 8760,
      "breathtaking": 8761,
      "latte": 8762,
      "expressions": 8763,
      "influence": 8764,
      "influenced": 8765,
      "independent": 8766,
      "appeared": 8767,
      "brett": 8768,
      "surprisingly": 8769,
      "crocodiles": 8770,
      "sophomore": 8771,
      "scifi": 8772,
      "aar": 8773,
      "bffs": 8774,
      "cried": 8775,
      "dare": 8776,
      "dwi": 8777,
      "dka": 8778,
      "numb": 8779,
      "sch": 8780,
      "uing": 8781,
      "atm": 8782,
      "itas": 8783,
      "itage": 8784,
      "liflower": 8785,
      "oom": 8786,
      "haun": 8787,
      "seats": 8788,
      "rocker": 8789,
      "worship": 8790,
      "adults": 8791,
      "workplace": 8792,
      "accor": 8793,
      "lyn": 8794,
      "teasing": 8795,
      "failed": 8796,
      "usion": 8797,
      "prep": 8798,
      "nightwish": 8799,
      "heritage": 8800,
      "pole": 8801,
      "tails": 8802,
      "cauliflower": 8803,
      "prices": 8804,
      "hairstyles": 8805,
      "winds": 8806,
      "stepped": 8807,
      "crave": 8808,
      "healthcare": 8809,
      "calden": 8810,
      "keyboards": 8811,
      "weathers": 8812,
      "vodka": 8813,
      "fris": 8814,
      "surfs": 8815,
      "flowing": 8816,
      "smokes": 8817,
      "seventies": 8818,
      "billie": 8819,
      "terriers": 8820,
      "holds": 8821,
      "pregnancy": 8822,
      "scobby": 8823,
      "mitten": 8824,
      "physics": 8825,
      "indiana": 8826,
      "cheerleaders": 8827,
      "connections": 8828,
      "cellphone": 8829,
      "massive": 8830,
      "inspirational": 8831,
      "script": 8832,
      "rollerblade": 8833,
      "witty": 8834,
      "accomplishment": 8835,
      "crashed": 8836,
      "inherit": 8837,
      "cheaters": 8838,
      "discipline": 8839,
      "flavour": 8840,
      "aid": 8841,
      "bid": 8842,
      "lack": 8843,
      "mins": 8844,
      "nj": 8845,
      "nin": 8846,
      "slo": 8847,
      "sah": 8848,
      "zep": 8849,
      "incoming": 8850,
      "hest": 8851,
      "archer": 8852,
      "beds": 8853,
      "wifi": 8854,
      "bubb": 8855,
      "adren": 8856,
      "eter": 8857,
      "goodnight": 8858,
      "modif": 8859,
      "unaware": 8860,
      "identi": 8861,
      "pelin": 8862,
      "mpy": 8863,
      "extended": 8864,
      "bia": 8865,
      "sheet": 8866,
      "booze": 8867,
      "sized": 8868,
      "final": 8869,
      "icky": 8870,
      "housework": 8871,
      "tras": 8872,
      "chopped": 8873,
      "landed": 8874,
      "hotdog": 8875,
      "milena": 8876,
      "cameras": 8877,
      "surfed": 8878,
      "paycheck": 8879,
      "charley": 8880,
      "courts": 8881,
      "tender": 8882,
      "vesdrop": 8883,
      "majora": 8884,
      "roomies": 8885,
      "polishing": 8886,
      "educate": 8887,
      "aneous": 8888,
      "twitter": 8889,
      "goofy": 8890,
      "decis": 8891,
      "inspirations": 8892,
      "eee": 8893,
      "emotional": 8894,
      "participant": 8895,
      "vehicles": 8896,
      "belonged": 8897,
      "fusion": 8898,
      "hawks": 8899,
      "wyd": 8900,
      "thrown": 8901,
      "dramatic": 8902,
      "bicycling": 8903,
      "possession": 8904,
      "eavesdrop": 8905,
      "mcgregor": 8906,
      "zeppelin": 8907,
      "bli": 8908,
      "cany": 8909,
      "glo": 8910,
      "hound": 8911,
      "jb": 8912,
      "lg": 8913,
      "mbs": 8914,
      "ret": 8915,
      "repub": 8916,
      "reaction": 8917,
      "rebel": 8918,
      "venice": 8919,
      "vents": 8920,
      "toppings": 8921,
      "orc": 8922,
      "meh": 8923,
      "melon": 8924,
      "ita": 8925,
      "kellie": 8926,
      "lican": 8927,
      "arly": 8928,
      "locks": 8929,
      "enties": 8930,
      "forte": 8931,
      "rocking": 8932,
      "user": 8933,
      "ragin": 8934,
      "greatly": 8935,
      "prevents": 8936,
      "exes": 8937,
      "ified": 8938,
      "bikin": 8939,
      "aster": 8940,
      "mane": 8941,
      "momma": 8942,
      "kens": 8943,
      "finest": 8944,
      "trum": 8945,
      "napping": 8946,
      "humus": 8947,
      "greens": 8948,
      "tural": 8949,
      "cases": 8950,
      "camry": 8951,
      "juicing": 8952,
      "clips": 8953,
      "tasted": 8954,
      "gnarly": 8955,
      "twenties": 8956,
      "ponds": 8957,
      "reliable": 8958,
      "johns": 8959,
      "stationed": 8960,
      "savings": 8961,
      "thrills": 8962,
      "bloody": 8963,
      "operation": 8964,
      "score": 8965,
      "spectrum": 8966,
      "mandi": 8967,
      "murder": 8968,
      "materials": 8969,
      "nanny": 8970,
      "scrubway": 8971,
      "refurbish": 8972,
      "ptsd": 8973,
      "crossed": 8974,
      "crawling": 8975,
      "pencils": 8976,
      "crisp": 8977,
      "conspiracy": 8978,
      "oriented": 8979,
      "adrenaline": 8980,
      "republican": 8981,
      "ragini": 8982,
      "ell": 8983,
      "evacu": 8984,
      "hating": 8985,
      "hanna": 8986,
      "ilor": 8987,
      "koo": 8988,
      "kie": 8989,
      "nag": 8990,
      "ology": 8991,
      "sides": 8992,
      "wpm": 8993,
      "sti": 8994,
      "staff": 8995,
      "aroo": 8996,
      "hale": 8997,
      "ensive": 8998,
      "enlisted": 8999,
      "robe": 9000,
      "ady": 9001,
      "etsy": 9002,
      "tiff": 9003,
      "uncles": 9004,
      "nebr": 9005,
      "joan": 9006,
      "febru": 9007,
      "getaway": 9008,
      "debra": 9009,
      "machin": 9010,
      "ruth": 9011,
      "pilots": 9012,
      "seeking": 9013,
      "whoever": 9014,
      "fools": 9015,
      "trivia": 9016,
      "milking": 9017,
      "throne": 9018,
      "seller": 9019,
      "snoop": 9020,
      "pastas": 9021,
      "juana": 9022,
      "hardest": 9023,
      "relinqu": 9024,
      "hearty": 9025,
      "18th": 9026,
      "tablet": 9027,
      "disneyland": 9028,
      "operate": 9029,
      "opti": 9030,
      "scored": 9031,
      "wisdom": 9032,
      "cloudy": 9033,
      "grabbing": 9034,
      "entirely": 9035,
      "communicate": 9036,
      "contract": 9037,
      "belongs": 9038,
      "surviving": 9039,
      "flooded": 9040,
      "airlines": 9041,
      "rabbit": 9042,
      "lagged": 9043,
      "skull": 9044,
      "marijuana": 9045,
      "tiffany": 9046,
      "nebraska": 9047,
      "february": 9048,
      "machines": 9049,
      "ebay": 9050,
      "fence": 9051,
      "gap": 9052,
      "ique": 9053,
      "mig": 9054,
      "oid": 9055,
      "sack": 9056,
      "tabby": 9057,
      "recogni": 9058,
      "ordin": 9059,
      "ites": 9060,
      "hav": 9061,
      "whine": 9062,
      "solves": 9063,
      "aldean": 9064,
      "sem": 9065,
      "ases": 9066,
      "roar": 9067,
      "gogh": 9068,
      "coding": 9069,
      "mosqu": 9070,
      "acara": 9071,
      "nearest": 9072,
      "abou": 9073,
      "teous": 9074,
      "jose": 9075,
      "defi": 9076,
      "watchin": 9077,
      "exhibit": 9078,
      "bilit": 9079,
      "march": 9080,
      "pretti": 9081,
      "stolen": 9082,
      "whoop": 9083,
      "mentally": 9084,
      "puff": 9085,
      "glue": 9086,
      "thankyou": 9087,
      "wins": 9088,
      "curing": 9089,
      "savan": 9090,
      "igor": 9091,
      "granddaughter": 9092,
      "hunts": 9093,
      "salut": 9094,
      "stuffing": 9095,
      "tribute": 9096,
      "stron": 9097,
      "juan": 9098,
      "stark": 9099,
      "flipping": 9100,
      "prime": 9101,
      "smokey": 9102,
      "expenses": 9103,
      "copies": 9104,
      "emt": 9105,
      "magician": 9106,
      "mysterious": 9107,
      "punkrock": 9108,
      "caps": 9109,
      "riverside": 9110,
      "recording": 9111,
      "sucked": 9112,
      "advertise": 9113,
      "motivate": 9114,
      "speeding": 9115,
      "snorkel": 9116,
      "whittle": 9117,
      "swingset": 9118,
      "ambition": 9119,
      "spiderman": 9120,
      "economy": 9121,
      "omelet": 9122,
      "platform": 9123,
      "dweller": 9124,
      "solitude": 9125,
      "stabbed": 9126,
      "brazil": 9127,
      "recognize": 9128,
      "ordinary": 9129,
      "mosqui": 9130,
      "defiantly": 9131,
      "savannah": 9132,
      "salutations": 9133,
      "banger": 9134,
      "gor": 9135,
      "juring": 9136,
      "kong": 9137,
      "pact": 9138,
      "pissed": 9139,
      "rack": 9140,
      "rangers": 9141,
      "tzu": 9142,
      "inland": 9143,
      "thm": 9144,
      "replaced": 9145,
      "andon": 9146,
      "thent": 9147,
      "helo": 9148,
      "lilies": 9149,
      "ensla": 9150,
      "behave": 9151,
      "bevera": 9152,
      "aleg": 9153,
      "lele": 9154,
      "chances": 9155,
      "bueno": 9156,
      "bubbles": 9157,
      "rio": 9158,
      "admin": 9159,
      "tied": 9160,
      "abandon": 9161,
      "tools": 9162,
      "dept": 9163,
      "muscle": 9164,
      "authent": 9165,
      "bos": 9166,
      "mugs": 9167,
      "trap": 9168,
      "trapped": 9169,
      "homer": 9170,
      "conjuring": 9171,
      "pover": 9172,
      "taker": 9173,
      "paraleg": 9174,
      "performer": 9175,
      "wonton": 9176,
      "nao": 9177,
      "hug": 9178,
      "madison": 9179,
      "bites": 9180,
      "diners": 9181,
      "sooner": 9182,
      "elsewhere": 9183,
      "vibr": 9184,
      "larry": 9185,
      "practiced": 9186,
      "shortly": 9187,
      "matic": 9188,
      "flun": 9189,
      "steakhouse": 9190,
      "photographed": 9191,
      "churches": 9192,
      "20th": 9193,
      "topics": 9194,
      "airport": 9195,
      "hoodoo": 9196,
      "nicole": 9197,
      "biologist": 9198,
      "valu": 9199,
      "trophy": 9200,
      "appreciated": 9201,
      "includes": 9202,
      "connecting": 9203,
      "thrilled": 9204,
      "investing": 9205,
      "scratching": 9206,
      "speller": 9207,
      "convertibles": 9208,
      "properly": 9209,
      "breezy": 9210,
      "eastern": 9211,
      "pillage": 9212,
      "recruiting": 9213,
      "weirdest": 9214,
      "procedures": 9215,
      "homies": 9216,
      "yankee": 9217,
      "knives": 9218,
      "jeremy": 9219,
      "suddenly": 9220,
      "received": 9221,
      "aaron": 9222,
      "enslaved": 9223,
      "beverages": 9224,
      "authentic": 9225,
      "paralegal": 9226,
      "3d": 9227,
      "aero": 9228,
      "braid": 9229,
      "fad": 9230,
      "iver": 9231,
      "ipa": 9232,
      "ium": 9233,
      "ptian": 9234,
      "sust": 9235,
      "xd": 9236,
      "yards": 9237,
      "rex": 9238,
      "review": 9239,
      "ancer": 9240,
      "theast": 9241,
      "meas": 9242,
      "stad": 9243,
      "heals": 9244,
      "hiw": 9245,
      "peaches": 9246,
      "bod": 9247,
      "muffin": 9248,
      "joys": 9249,
      "gua": 9250,
      "pointer": 9251,
      "anie": 9252,
      "pretenti": 9253,
      "diverse": 9254,
      "caucas": 9255,
      "rend": 9256,
[...]
